#version: 0.2
Ġ t
Ġ a
i n
h e
Ġ o
r e
Ġt he
Ġ w
Ġ s
e r
a t
in g
o n
e s
n d
o u
i t
i s
e n
Ġ f
Ġt o
Ġ b
o r
Ġ c
a n
Ġo f
Ġ p
â Ģ
Ġ m
Ġa nd
a l
Ġ in
Ġ h
Ġt h
e d
Ġ d
Ġ l
a r
v e
t i
a s
l e
Ġ e
Ġ y
o m
Ġy ou
o w
c h
u r
l l
en t
e t
Ġ n
u s
Ġ g
Ġ is
âĢ Ļ
Ġ re
Ġo n
r a
l y
Ġth at
Ġw e
o s
v er
i m
a y
c e
i g
Ġ he
Ġh a
i on
T he
o t
Ġl i
i c
e c
u t
Ġw h
l d
Ġf or
Ġ I
Ġs t
i r
it h
Ġb e
i d
Ġyou r
Ġw ith
k e
Ġa s
Ġa n
t er
Ġ it
s e
t h
r o
on g
s t
Ġ S
Ġo r
a p
he r
o d
Ġa re
u n
âĢ ľ
âĢ Ŀ
f e
a c
o p
Ġo ur
it y
u l
Ġ The
Ġc on
Ġe x
es s
Ġa t
at ion
Ġf r
Ġ W
t s
Ġd o
Ġw or
Ġ us
a i
i e
Ġn e
a m
ti on
ig h
Ġs e
Ġha ve
g e
Ġ A
Ġ T
a d
re s
at e
a k
i es
Ġli fe
Ġ O
in d
Ġm o
Ġa l
ver y
Ġ âĢľ
ou t
a in
Ġc om
es t
âĢ Ķ
Ġg o
i l
Ġ J
an t
er s
e p
i ve
i ll
re d
Ġ H
igh t
e l
Ġ M
Ġb y
a nd
o l
i f
u p
Ġ r
r ou
he n
Ġthe ir
Ġfr om
l ow
Ġs h
o c
os e
i ch
g h
o k
a b
Ġ F
ou ld
u m
os t
t ing
v ing
Ġc an
Ġth is
Ġon e
t o
Ġ B
Ġ C
ing s
Ġn ot
ap an
. âĢĿ
e ar
Ġa ll
Ġc h
u re
Ġa b
Ġh is
Ġthe y
v es
Ġ L
Ġwh o
i k
u d
im p
e m
Ġb ut
ar d
Ġ v
o g
Ġf e
Ġp ro
p p
ĠJ apan
t he
Ġw as
is t
Ġl ong
e op
re at
ou r
al l
Ġa c
m ent
Ġ j
Ġ k
eop le
a ke
o ok
on e
or t
Ġd ay
Ġt im
Ġa r
a ch
an s
Ġ E
Ġs p
Ġ en
Ġe very
Ġ (
al ly
ow n
om e
q u
t her
Ġ R
ig ai
in e
Ġm e
ar t
Ġ ke
re n
a g
a w
u c
Ġt e
Ġthe m
er c
ra p
id e
Ġ 1
ti c
Ġwh ich
Ġmo re
v en
Ġp eople
Ġtim e
i le
Ġ P
as t
us t
Ġg et
Ġ D
nd s
ra c
l es
n e
v ed
Ġ up
it ion
Ġl e
ec t
k s
r i
k in
Ġ G
Ġ un
Ġ imp
Ġa d
Ġm an
res s
m s
Ġs o
Ġre s
Ġhe r
Ġwh at
s o
at ed
Ġab out
h ing
l i
v ity
Ġw hen
ou gh
Ġwor k
u ch
ou s
al th
as s
ik igai
2 0
a ce
l p
t e
or d
kin aw
c i
r y
w e
Ġ N
Ġo ther
Ġh as
Ġth ings
ĠI n
se l
a ge
h at
Ġ ikigai
en ce
Ġf o
Ġf low
Ġex p
h is
Ġo b
re e
Ġm ind
u e
w ay
Ġ Y
Ġm y
Ġd is
Ġcon t
I n
Ġb od
Ġth an
tion s
Ġo ut
es e
Ġh ow
Ġhe lp
f ter
Ġw ill
Ġd i
ac k
o ve
Ġs ec
Ġd e
Ġon ly
Ġal so
Ġke ep
o y
at ing
Ġp l
ti ve
Ġwor ld
Ġcom p
c om
f f
i z
t en
al s
Ġy ear
Ġha d
Ġfe el
re t
Ġha pp
Ġk n
he re
ou n
Ġp r
g et
t or
Ġb r
Ġm ost
Ġli ke
ĠH e
e vity
i ent
ã ģ
Ġt w
Ġp at
Ġli ve
ĠI t
ĠW e
rap y
Ġbod y
W e
o b
it s
ra in
ĠO kinaw
ort ant
f ul
r an
t ain
Ġt as
Ġa g
Ġp ur
i a
Ġp h
Ġin to
ot her
erc is
p t
w n
in k
Ġo ver
Ġf ac
ur n
am e
, âĢĿ
d uc
i b
Ġ 20
Ġs he
Ġc ent
Ġm ake
ar y
Ġhe alth
Ġcom m
rou nd
o re
u nd
Ġ if
Ġthe se
Ġc l
ve l
Ġe m
Ġe ach
Ġan y
Ġse e
ak ing
Ġsh ould
c ess
Ġw ay
Ġst ud
Ġit s
rou gh
Ġimp ortant
c o
m e
r it
Ġthe re
on s
Ġn o
ĠS t
Ġex ercis
h al
t ed
Ġs ti
Ġp er
Ġp rac
Ġd own
Ġbe en
ĠJapan ese
f or
u al
Ġa ge
Ġa fter
Ġf ind
Ġb et
ti l
as e
Ġn at
Ġdo ing
Ġmo ve
ab le
a re
a us
c ord
p ose
w w
Ġ U
Ġs ay
Ġh im
Ġth ough
Ġd on
om et
ow ing
Ġwe re
ation s
oc us
Ġj ust
Ġman y
sel f
Ġyear s
omet hing
e f
p l
w ard
Ġa m
Ġo ld
Ġw ould
Ġw here
Ġs m
an ing
Ġth ing
Ġth ose
ra d
ĠOkinaw a
o od
p le
y s
Ġ qu
Ġs ome
is h
an c
ti v
ter n
ul t
ĠThe y
ran k
0 0
j ec
u b
at es
on d
it ies
en ti
Ġb ack
or k
Ġe ven
Ġre st
ul ar
Ġne ed
i ld
i ence
j oy
Ġf ocus
or s
Ġp ass
al k
Ġth rough
ent s
th ing
ak es
Ġun til
Ġad d
Ġpat ient
o f
p s
in ess
Ġb ec
Ġp re
Ġl ook
ar i
ti ce
le ar
ic al
Ġwh ile
Ġst ress
Ġcon s
ment s
Ġkn ow
Ġpur pose
rank l
Ġ V
or n
ow er
Ġre l
ir st
Ġse em
il ity
ers on
Ġfe w
Ġsti ll
cord ing
c re
p er
ou nd
is ts
en s
Ġb ook
Ġbe ing
ĠS h
Ġfr ie
Ġar t
Ġbr ing
Ġ20 1
I t
a red
b er
d ay
g im
i al
r ie
u k
Ġs omething
en g
Ġb est
Ġm uch
ie w
Ġlong evity
Ġen joy
Ġfo ll
Ġcont ro
gim i
e nd
Ġ .
he s
at er
on t
or it
an g
an ce
Ġp res
Ġp erson
Ġe nd
ch ie
ra g
Ġst ate
Ġwith out
Ġne w
ol og
ĠF rankl
erc ent
Ġ1 9
c l
h i
i ce
r ow
s p
t le
Ġt r
Ġa pp
Ġs uch
it ed
Ġf irst
Ġd r
Ġe at
et y
ig n
ot he
Ġdo es
Ġne ver
Ġgo od
Ġme aning
Ġob jec
Ġsec ret
ĠU n
i o
l ic
o in
u ll
w h
Ġs u
at her
at ive
Ġc lear
Ġp ar
Ġp os
Ġm ight
Ġth ree
Ġd if
ar ch
ver s
Ġha nds
Ġst ay
Ġas k
st e
Ġem o
orit a
n ess
x t
Ġ K
on es
is m
Ġof f
Ġm ed
fe ren
ĠT his
way s
Ġtas ks
aus e
Ġfrie nds
othe rapy
a x
a ve
b e
b le
d er
m ost
y ch
Ġ ro
Ġt ake
Ġw om
it tle
Ġf in
Ġb u
Ġb us
Ġg reat
Ġre ad
ĠI f
Ġst r
ai l
am ple
ĠA s
Ġpro cess
Ġte a
sel ves
hal e
Ġcontro l
g y
m an
p ro
Ġ ra
Ġa chie
Ġo wn
it e
en er
en se
en ef
Ġm om
Ġd es
ti f
Ġe ar
Ġas s
ad e
Ġgo ing
Ġv ia
og otherapy
Ġprac tice
Ġsm all
/ /
: //
c es
o ld
t t
t y
u res
Ġ Z
Ġ ve
Ġ im
Ġa round
it u
en ari
Ġc ould
Ġp art
ti m
et rie
Ġre m
Ġwe ll
Ġli ves
ai ly
ĠA n
ĠO gimi
ĠL ong
Ġday s
Ġsp ir
Ġle vel
Ġres p
we en
Ġexp er
Ġam ong
ste ad
Ġemo tions
etrie ved
) .
1 1
O ne
W hat
c ent
e ver
f ore
i re
i ly
n g
s ych
v iew
Ġ very
Ġ ide
Ġt urn
in ut
he d
Ġs a
Ġs imp
es p
Ġto wn
Ġc e
Ġc al
Ġm od
Ġl ittle
Ġg i
Ġg rou
Ġre g
ce pt
th at
Ġor der
ap ter
Ġex ample
ĠW hen
Ġal ways
Ġsh ow
og a
Ġar ms
Ġtw o
Ġtas k
Ġph ys
Ġcomm un
Ġexercis e
enari ans
e k
e x
g o
i v
m ed
r om
Ġa way
Ġw ant
Ġw rit
Ġs er
Ġs ame
er tain
Ġto get
Ġb enef
an ts
Ġp ercent
Ġh igh
ch n
ent al
Ġg re
Ġha nd
ic k
ter view
Ġwor d
ĠT h
Ġr ight
ear n
ud d
ĠY ou
Ġbet ter
Ġnat ure
olog y
Ġmom ent
Ġve get
Ġtoget her
1 0
c cording
h y
l ue
s ide
Ġa ut
in es
Ġs et
Ġs ense
Ġf am
Ġf ive
Ġb as
Ġb reat
Ġin d
Ġd id
Ġd aily
Ġl et
le as
ver al
ot h
Ġli ving
Ġwh y
Ġfor m
Ġne xt
ĠM orita
iz ed
co ver
) ,
S t
a v
l ain
x id
y p
Ġs y
Ġs ur
is e
Ġf ree
Ġf ound
Ġc ar
Ġc reat
Ġp al
Ġm aking
Ġm inut
Ġin v
Ġh our
Ġl ess
Ġe le
Ġe ff
ur al
Ġre ach
ig ong
Ġhe art
ic s
Ġan other
ter s
un g
Ġour selves
Ġcon f
ĠC h
Ġfo od
Ġhelp s
Ġdi et
ww w
Ġfoll owing
Ġdr ink
Ġobjec tive
tif rag
Ġsa id
I I
a u
c tor
f t
g ative
j ect
k igai
n er
w ith
Ġ 8
Ġt ry
Ġthe n
Ġthe rapy
Ġs ing
Ġs low
er gy
at or
Ġf ull
Ġb rain
or ld
Ġp leas
Ġin stead
Ġin terview
Ġh ard
Ġl oc
Ġl earn
Ġe l
Ġe ating
Ġn ow
Ġg ive
Ġwe ek
ut ure
un ag
Ġat t
ĠT o
ab les
Ġv is
Ġen ergy
Ġme ans
ri ed
Ġwork ing
Ġcomp le
Ġag ain
ib le
Ġcomm on
Ġstud y
Ġbet ween
tiv ities
Ġpres ent
Ġdif feren
Ġgrou p
T his
W hen
f ic
g an
o xid
u in
v o
w ork
y le
Ġt yp
in s
in ed
in ce
er n
at h
it ation
Ġf ace
Ġto ward
an ge
Ġm ar
Ġm ain
Ġd ist
Ġl ove
ti re
ti oxid
ur ing
ra nd
ec tion
Ġbe fore
ap p
ac t
Ġus ed
Ġse veral
Ġch i
Ġab le
Ġpro ble
ĠR etrieved
Ġke y
Ġget ting
ĠN e
Ġob s
Ġpl ay
Ġfac t
Ġcent ur
und red
Ġexercis es
for m
rad ition
Ġqu es
uk i
A ccording
O kinaw
a o
b r
h or
i p
i ed
i ally
i qu
i vers
l ong
l and
w as
y ou
y our
Ġ 2
Ġt re
Ġt ak
Ġt rain
re ad
er ing
Ġf uture
Ġto o
Ġb o
Ġb oth
Ġc he
Ġp ub
Ġp ower
Ġm ade
Ġm ental
Ġin cre
Ġh ar
Ġh um
Ġth ink
Ġd ec
Ġl ast
ar c
le c
le ep
Ġy oga
Ġyou ng
Ġhe ad
Ġha ving
Ġst art
id ents
Ġex t
ation al
ĠW hat
Ġne ur
oc i
all eng
Ġac tive
Ġpl ace
Ġhapp iness
oun t
oun tain
ob s
ild ren
Ġrel ax
Ġask ed
Ġbus y
Ġspir it
Ġexper ience
Ġcommun ity
Ġpal ms
Ġminut es
A n
A s
a z
b it
m er
m at
s h
x i
Ġt radition
Ġa ver
Ġs up
Ġb l
Ġc ertain
Ġp ost
Ġp oin
Ġp sych
Ġm at
Ġh tt
Ġd one
Ġl ose
Ġl ater
ent y
Ġre p
Ġre se
os s
The y
ot e
ot o
ec ially
Ġcon n
Ġfr ont
Ġwor ry
Ġus e
Ġne ar
Ġne gative
Ġal most
ĠH ow
if ic
ab i
ĠB udd
ud e
Ġlong er
Ġtim es
Ġsp end
Ġevery thing
ect anc
Ġres idents
Ġsec ond
ten tion
Ġhapp y
Ġkn own
vel op
Ġprac tic
Ġnat ural
enti al
Ġseem s
Ġwom an
cent r
esp ecially
Ġphys ical
Ġaver age
E S
H ow
I f
Y ou
a is
b ut
c ed
c ri
d o
d om
i x
i fe
p h
p r
u ally
v ent
Ġt aking
Ġo p
Ġw alk
Ġs c
Ġs k
Ġc our
an y
Ġof ten
al y
Ġh undred
Ġl ow
ar ting
as es
et h
Ġn um
Ġre al
Ġon es
Ġhe re
ec ts
Ġst op
ir c
Ġyour self
ĠS to
ess ion
ak i
ĠO ne
il ience
Ġr ather
ik u
Ġpro duc
the y
Ġac tivities
li ke
Ġother s
Ġkeep ing
Ġpr in
Ġpr om
Ġtw enty
Ġhealth y
Ġmove ment
Ġmove ments
Ġbec ause
Ġass oci
Ġide a
Ġgre en
Ġveget ables
tifrag ile
vo id
ĠNe w
ectanc y
C h
J apan
a ving
b y
f low
i an
i ous
l is
p les
t r
Ġ |
re g
re ts
Ġw a
er ate
Ġf l
Ġm akes
Ġm orn
as k
Ġe as
ch o
Ġg row
Ġg ener
Ġre d
Ġre as
Ġon ce
ra w
The re
ut r
Ġan tioxid
st r
ĠS he
ul es
Ġcon duc
ĠW est
Ġgo es
ol ves
Ġk ind
ĠE very
Ġte chn
Ġad v
ci ent
Ġdis c
Ġdis cover
Ġhow ever
Ġde velop
iz e
Ġag ing
Ġfac tor
Ġpre p
Ġsu g
Ġbu ild
Ġstr ong
Ġachie ve
ĠLong evity
Ġlevel s
Ġsimp ly
Ġce ll
Ġcal or
Ġhour s
Ġ8 0
Ġloc al
Ġdifferen t
Ġdist rac
xi ety
Ġpost ure
Ġcour se
iku was
Ġmorn ing
N G
S h
c c
e ace
i hal
l ess
m on
o ll
r ies
r ight
s ion
u i
w here
y n
Ã Ń
Ġ $
Ġ q
Ġ ent
Ġt en
Ġt ai
in to
re st
Ġs oc
Ġs leep
it ive
is dom
Ġb ir
Ġc ap
Ġc irc
Ġp op
Ġp ast
Ġp eace
Ġm us
Ġm ay
Ġm ountain
al ue
Ġin sp
Ġd ep
Ġl ogotherapy
ar u
ti es
ti vity
Ġe ight
ow s
ch a
Ġre f
os es
os op
Ġli f
Ġli ved
ĠI kigai
ro p
ap e
ap er
ie ld
ĠA l
Ġcom e
il osop
ill age
ĠB e
ĠB lue
Ġch apter
ag es
ust r
Ġexp ectancy
his m
Ġdi ed
Ġfeel ings
Ġpat h
Ġcl os
Ġpass ion
Ġlook ing
Ġbring ing
Ġ19 8
Ġdoes n
ĠUn ited
ĠUn ivers
Ġmed itation
Ġachie ving
ĠZ ones
iv id
Ġbenef its
Ġword s
Ġaut hor
Ġsing le
Ġcomple te
alleng es
Ġprin ci
ihal y
ĠUnivers ity
1 5
H e
T o
a ut
c on
c an
e b
e very
i en
k n
l f
l ight
p ur
r ing
s u
Ġ 3
Ġ âĢ
Ġ ess
Ġ und
Ġ rad
Ġt er
Ġt alk
Ġa w
Ġa void
Ġs at
Ġs on
Ġs it
Ġs ign
Ġs cho
ing ers
ou se
it ude
is ing
is ion
is tic
en ing
Ġb re
Ġb it
Ġb ig
Ġc ur
Ġc ol
Ġc all
Ġp ain
al ity
Ġin s
Ġin tern
Ġh ome
Ġh old
Ġd et
ti me
as ter
us h
us hi
Ġg ard
Ġg round
Ġre ally
ig in
ic ism
Ġbe nd
Ġan s
th day
st em
Ġcon cept
Ġse arch
Ġse lf
ĠT hat
ak unag
Ġal ong
Ġcom b
est yle
Ġgo al
ĠJ obs
ep s
Ġr out
ĠF or
Ġch ange
em ber
Ġlong est
ans l
Ġevery one
Ġle ad
Ġle ft
ect ed
Ġimp er
li fe
ĠY ork
ove red
Ġsec rets
com p
Ġph ilosop
Ġcent enarians
Ġstud ies
Ġadd ition
Ġbec ome
eng uin
Ġfoll ow
wh o
Ġwom en
Ġread ing
Ġim m
itu als
tim es
Ġfam ily
Ġind ivid
Ġques tions
Okinaw a
iqu e
read y
Ġpub lis
Ġrelax ed
Ġpoin t
Ġmat ter
Ġrese arch
Ġassoci ated
utr ition
Ġconduc ted
Ġsoc ial
light ly
Ġund er
Ġscho ol
akunag a
E x
O ur
R A
T h
b ed
c er
d e
e e
g ra
i et
i red
k et
m ihaly
p ar
r ic
s z
s ik
t on
u id
y ing
Ġ Q
Ġt ais
in ety
re c
Ġthe rap
is f
Ġf un
Ġf il
Ġf our
Ġf all
Ġf ingers
Ġc or
Ġc aus
Ġc ult
an a
Ġin f
Ġin ten
Ġin form
ed ic
Ġd raw
ar ac
as ed
le v
le br
ent mihaly
Ġg ot
Ġis land
os p
Ġst ren
ĠS p
un e
ul ation
Ġat tention
Ġfr u
Ġne igh
Ġse a
ĠO n
Ġmo ai
up s
Ġr ules
Ġsh ikuwas
ab ui
ĠF low
um e
Ġch ildren
Ġpro f
Ġac cording
Ġj ob
ook s
Ġsp ec
Ġen g
ne w
Ġle ast
Ġres ilience
li ving
ci pl
Ġexp lain
Ġdis e
Ġdis cipl
Ġcont in
Ġcont ain
Ġout side
ret ch
Ġhapp ens
ĠHe alth
Ġ20 0
me nd
ĠSt ates
Ġthough ts
Ġold est
Ġsome one
Ġpass ed
ĠSh akunaga
Ġ19 9
Ġpar tic
Ġdif fic
Ġstay ing
Ġbus iness
Ġear ly
ĠZ en
Ġresp ons
Ġbas ic
Ġsy stem
Ġinv olves
Ġele ments
ĠCh in
Ġel se
Ġagain st
Ġproble m
Ġcentur y
Ġhum an
Ġbl ood
ĠBudd hism
Ġnum ber
Ch apter
Japan ese
Ġprep ared
ÃŃ a
Ġq igong
Ġbir thday
Ġeight y
sz entmihaly
sik szentmihaly
Ġtais o
Ġneigh b
sikszentmihaly i
B ut
H E
I m
a ur
b u
b bit
c y
c les
f rom
h ib
h ave
h tt
i y
i er
i res
i ving
l ed
l ie
n ment
p tion
p eople
t urn
y o
y ond
y right
Ã ©
Ġt reat
in t
in ing
he ther
re ate
Ġw isdom
Ġs n
Ġs ci
Ġs ub
Ġs ince
er ving
it ask
Ġf ar
or m
Ġc o
Ġc at
Ġc ase
Ġc are
Ġc ount
Ġp o
Ġp or
Ġp ut
Ġp red
Ġp aper
Ġm is
Ġm et
Ġin t
Ġth ir
Ġd ri
Ġd uring
Ġl ar
Ġl ist
ti ves
Ġe y
om at
ent ary
Ġn ight
Ġn utrition
Ġn inety
Ġg l
Ġre ac
Ġre qu
Ġre tire
ra ight
ver nment
im in
Ġha b
ion s
ec tive
ut e
Ġfor ce
Ġst and
Ġbe h
id ed
Ġan im
Ġan xiety
st and
Ġor gan
op yright
ĠThe re
Ġex ce
Ġex hale
ĠW h
ĠW ill
Ġus ing
am age
il ities
Ġr ich
Ġr ituals
Ġsh own
oc k
ĠF e
um i
Ġch ang
ĠL ogotherapy
ik tor
Ġv alue
Ġj oin
one y
ĠE d
ĠE x
Ġte ll
rap h
ide red
ĠP ro
ĠD o
ĠG et
te nd
Ġbod ies
Ġde ep
Ġde ath
Ġpl ates
Ġfeel ing
oun ced
ãģ Ħ
Ġstud ents
co x
Ġsti m
Ġfind ing
Ġold er
ult itask
Ġrest aur
Ġfocus ed
ĠV iktor
ĠSh into
cl ud
row s
wh ich
Ġpos s
Ġpos ition
Ġoff er
be ing
Ġgreat er
Ġra bbit
Ġcal m
Ġfam ous
Ġbreat h
Ġdid n
Ġfood s
au gh
Ġbo red
Ġhtt ps
Ġnear ly
Ġsk ill
aly z
Ġgrow th
Ġantioxid ant
Ġbuild ing
Ġlif estyle
Ġcomplete ly
Ġprinci ples
ĠâĢ ĺ
Ġsat isf
Ġindivid ual
Ġinform ation
Ġstren g
Ġshikuwas a
Ġeng ine
1 2
1 4
? âĢĿ
A fter
C on
F or
I NG
M orita
M any
O n
O gimi
a im
a ir
b o
b aru
c le
c ome
f ort
f ect
f ood
g g
g reat
h app
l ish
m ine
m ove
m pt
n ing
n ine
p at
p or
p os
p art
r on
s ing
s ur
s abi
u es
w ill
w hat
y ear
Ġ ed
Ġt ra
Ġt em
Ġt akes
Ġo pp
Ġo cc
re al
re me
Ġw in
Ġw at
Ġw ater
Ġs ou
Ġs al
Ġs ol
Ġs itu
Ġs ushi
at ure
on in
on ly
ou ch
it z
it al
en n
Ġf el
Ġto ol
Ġb al
Ġb ad
Ġb orn
Ġc it
an other
an baru
Ġm on
Ġm el
al le
Ġin hale
Ġd ie
ar m
ar ing
ar th
as h
as ting
as ters
om s
Ġyou th
ll ing
Ġg rand
Ġre c
Ġre com
Ġre duc
Ġre turn
os is
im a
ay a
ce l
ce lain
ic t
ic es
ic ally
ec ause
Ġfor ms
Ġst arting
id a
id d
Ġan cient
th ough
st ant
ĠS an
od s
ul tiv
Ġcon centr
ĠW orld
Ġdo ctor
Ġwor th
tion al
Ġse ven
ĠT e
ĠT urn
ĠO r
ĠO ur
Ġmo ving
Ġal ready
Ġcom es
Ġgo als
Ġgo vernment
ĠF rom
ĠC l
ĠC on
ĠC al
Ġch allenges
Ġab ove
ĠL ife
Ġwho le
Ġpro v
the re
our ce
our ne
Ġac t
Ġac tivity
Ġj ung
Ġj ourne
Ġen c
ren ity
ag ing
Ġte nd
Ġte ac
Ġ1 00
ĠP eople
ĠD is
Ġle g
ri but
ress ion
Ġso on
Ġres ult
ass es
ci ous
Ġmind ful
ff er
iz ation
Ġhapp en
Ġpr on
ĠOkinaw ans
Ġfac ing
Ġcl ose
Ġsay s
Ġsay ing
Ġqu ick
Ġpatient s
Ġcons idered
Ġfew er
Ġart ist
Ġ201 6
ercent enarians
Ġdr ive
Ġclear ly
Ġpos itive
Ġfin ally
Ġdes ire
Ġce lebr
Ġgi ving
Ġgi ves
Ġgi ven
Ġreg ular
Ġveget able
Ġcar ry
with out
Ġpleas ure
Ġpleas ures
Ġinterview s
unag aya
Ġvis it
Ġmain tain
Ġcentur ies
Ġtre es
Ġtak en
Ġtak umi
Ġtrain ing
Ġincre ase
Ġext reme
Ġspirit ual
az aki
Ġtradition al
Ġpsych ology
ific ant
ĠSto icism
Ġreas on
Ġtechn ology
Ġdisc overed
Ġstrong er
rest s
Ġmountain s
Ġrad io
Ġbre ak
Ġpain ting
Ġrout ine
gra m
Ġtherap ist
Ġinten se
edic ated
Ġspec ial
Ġdise ase
Ġdiffic ult
iy azaki
Ġtreat ment
Ġhab its
Ġstim ul
Ġjourne y
/ .
5 0
7 0
A R
B e
E N
E R
E very
I s
I kigai
L ong
O R
R es
R etrieved
T ai
W h
a ren
a fter
b id
b od
b ers
c her
c ape
d s
e at
f ive
f ull
h ol
h ors
i or
i ves
i ved
j i
k ed
n o
n ot
o an
p in
r t
r is
s et
s ter
s omething
t ly
u z
u ce
u ice
w alk
w orld
y oto
á ¹
ç Ķ
Ġ ill
Ġ ich
Ġ especially
Ġa ff
in ary
he st
re l
Ġw on
Ġw ent
Ġw ood
Ġs um
Ġs ide
Ġs lightly
er t
er ation
at a
at onin
es tern
it her
Ġf le
Ġf ill
Ġf ear
Ġf ish
Ġf rag
Ġto day
or y
or ing
or ts
or ies
Ġc ard
Ġc reate
Ġp ay
Ġp ress
Ġm abui
Ġm oney
al eb
Ġin c
Ġh ig
Ġh ous
Ġd est
Ġd amage
Ġd edicated
Ġl im
Ġl ot
Ġl ight
Ġl ost
ti al
as mine
le y
Ġe p
Ġe v
ch i
ch ildren
ll o
ent ly
et ing
ra y
os ing
ver se
Ġhe ar
Ġfor get
ĠI s
ĠI ts
ĠI bid
Ġst eps
Ġst retch
ir o
Ġbe g
Ġbe ings
Ġbe lie
Ġan tifragile
th is
th ings
ĠS e
Ġor igin
un ch
op e
ĠThe n
ĠW estern
am i
Ġse par
ĠA b
ĠA t
ĠT ok
ĠT ao
ak oto
Ġal co
Ġcom ing
and s
if ies
Ġr un
um an
Ġcan cer
ĠB re
ĠC sikszentmihalyi
Ġnot hing
ear ch
Ġch arac
Ġab s
ĠL ive
ud io
imp ortant
Ġv ari
Ġv iew
Ġv illage
og n
Ġfe et
ist ential
Ġac c
Ġac cept
Ġj uice
Ġk ill
Ġar rows
ach ie
ĠE ng
ĠE arth
Ġsp e
Ġen ough
uc t
uc tion
ĠP enguin
ĠD e
ĠG uin
ĠG hib
li er
ĠN ass
Ġexp l
ĠY anbaru
Ġmy self
Ġmy ster
Ġthan ks
Ġpl an
ret ty
Ġpr ot
ãģ ®
Ġag o
ib ility
Ġcent er
Ġcl aim
Ġthough t
pl oy
rad ley
Ġsome times
anc es
anc ed
00 0
enti fic
Ġbec om
Ġperson al
hi p
Ġapp ly
Ġobjec tives
lic ations
Ġfin al
Ġstr uct
pro duc
Ġdes cri
Ġim ag
Ġrem ind
Ġrem ain
Ġrem ember
Ġide as
Ġsimp le
Ġmod el
Ġmod ern
Ġshow ed
Ġwrit e
Ġbas is
Ġbreat hing
Ġind ic
Ġsur round
Ġele v
Ġconf lic
Ġel imin
Ġatt itude
Ġmar ket
Ġmar tial
Ġproble ms
Ġobs ess
Ġques tion
Ġthink ing
Ġext ra
Ġhtt p
Ġop en
Ġprom ote
Ġeas y
Ġfactor s
Ġpop ular
ield s
ustr ation
Ġclos er
aut y
every thing
Ġter m
Ġdet ail
Ġgard en
Ġphilosop hy
ric tion
ĠQ igong
Ġcaus es
Ġcult ure
Ġdraw ing
lev ision
Ġprof ession
ĠChin ese
led ge
Ġsci entific
Ġpor celain
Ġthir ty
ultitask ing
Ġengine ers
Ġfel t
Ġreduc es
Ġjung le
Ġpron ounced
Ġquick ly
ĠTok yo
Ġalco hol
ĠEng lish
ĠGuin ness
ĠGhib li
! âĢĻ
1 3
1 6
3 7
9 0
9 7
C C
E T
L O
M ed
P l
a h
b s
b ack
c k
c est
c ons
d is
d if
d own
d ition
e en
e ff
e aning
f ac
f ast
g er
g ing
g ener
h ab
h ist
i os
i vity
m l
m un
m ight
m ail
o ver
o ose
o ff
p ower
r ot
s m
s ity
s up
s ue
t w
t hen
t ml
u red
v as
y les
y au
z one
ã Ĥ
Ġ u
Ġ es
Ġ ir
Ġ çĶ
Ġt rou
in c
in st
he alth
he lp
Ġo per
re ctor
Ġw al
Ġw ind
Ġw ake
Ġs w
Ġs im
Ġs ong
Ġs cre
Ġs ession
er v
er ous
on se
ou ra
it ing
it ual
it ute
is es
en e
en ge
en cy
Ġf ail
Ġb ro
Ġb lue
Ġb unagaya
or g
Ġc y
Ġc am
Ġc up
Ġc ook
Ġc opyright
an e
an n
an ies
Ġp rou
Ġm ic
Ġm other
Ġm aster
al f
al ys
Ġin it
Ġin side
Ġin hab
Ġh orm
Ġh alf
ed ia
Ġd el
Ġd em
Ġd ata
Ġl ed
Ġl ack
ar a
ar s
ar tic
ti ll
ti aging
as ic
as ure
le t
le ase
Ġe go
Ġy et
om a
om o
om an
om ach
ur ther
et t
Ġn or
us e
us ion
us hes
Ġg r
Ġg uid
Ġre ce
Ġre cord
Ġwe alth
Ġha ven
Ġha chi
The se
ot es
ic on
ic ial
ut er
Ġwh ite
ĠI m
Ġst age
Ġst raight
Ġst omach
Ġbe yond
Ġbe auty
id ing
id es
id ent
Ġwith in
Ġit self
th ree
ro ve
ro duc
ro flow
st ac
st itute
ĠS un
ĠS uz
ap s
od ern
ac ity
ac ks
ul ts
ul ating
ĠThe ir
ĠThe se
Ġcon cre
Ġcon stant
ess or
ĠW ith
am es
ĠA pp
ĠA ida
ĠT aleb
ĠT yau
ad es
ate ly
ate ver
Ġal one
il ar
il ient
ep p
ĠM ir
ĠM akoto
ĠM eaning
and om
Ġr ise
oc ity
oc als
ok ing
ĠB ut
ĠB ring
ĠB ooks
Ġall ow
Ġall ows
Ġab ility
ĠL ess
em bers
Ġv it
the m
the ir
all enge
Ġac tions
Ġk ne
ort ance
Ġar ts
Ġen v
Ġen tire
ĠR e
ĠR es
ĠR ec
ĠR andom
Ġme ant
art ph
ren al
Ġte am
Ġ1 8
Ġ1 10
ĠP ress
ast rop
ust om
Ġget s
ĠD an
ition s
ĠG arc
Ġun ique
Ġher self
hing ton
ord s
ord er
ord ers
ord inary
we et
we red
Ġfo ot
Ġfo rests
Ġob ject
Ġob stac
ĠY uki
Ġhelp ing
Ġdi v
Ġdi rector
Ġpl ant
Ġcomp anies
com ing
ff ering
Ġfeel s
Ġkn owing
Ġbr ings
Ġbr ush
Ġlike ly
Ġtw el
Ġtw ice
Ġag es
Ġph one
pt y
Ġover come
Ġcent ers
Ġem ploy
Ġem pty
Ġany one
Ġany thing
Ġsee k
Ġshould ers
ĠSt arting
Ġhim self
ef ore
pl omat
Ġam ount
tern al
Ġneed s
Ġpre mat
Ġcons ume
Ġcons cious
Ġknow ledge
Ġrel ations
ens ion
Ġfrie nd
Ġart is
Ġart ists
Ġ201 4
Ġenjoy ing
end ing
hi ps
Ġtr ue
Ġapp ear
lic ation
Ġsu ffering
ĠK yoto
Ġoff ers
Ġro le
Ġro om
Ġfin ish
man ence
Ġdes ires
Ġear lier
old est
ĠAn tifragile
ĠLong er
Ġspir its
Ġresp ond
Ġresp onse
Ġshow s
go v
Ġwrit ing
Ġser ved
ĠTh ough
ĠTh ink
Ġbreat he
Ġsy mpt
Ġcreat ing
Ġeff ect
Ġeff ects
Ġreach ing
tifrag ility
II I
ator y
Ġbrain s
Ġhard er
Ġvis ual
Ġvis ited
Ġtyp ically
Ġobs erving
Ġplay ing
Okinaw ans
long evity
Ġpower ful
Ġhum ans
Ġneur ons
Ġneur oses
sh ould
Ġtradition s
Ġconn ection
ĠBudd hist
Ġsecond ary
Ġpractic ing
Ġpractic es
do ing
tr ansl
reg ulating
Ġreas ons
Ġsug ar
Ġcell s
Ġcalor ies
Ġdistrac tions
yn man
Ġent er
Ġcap acity
Ġmus cles
Ġdep ression
kn ow
pur pose
Ġess ential
Ġtalk ing
Ġaw are
Ġsit ting
Ġsign ificant
Ġintern ational
Ġans w
Ġans wered
Ġpublis her
Ġpublis hed
Ġfun c
Ġfil ms
Ġcor rec
Ġfru it
Ġdiscipl ines
Ġpartic ular
Ġneighb ors
Ġsn ack
Ġco ast
Ġcount ry
Ġdri ves
Ġey es
ĠWill cox
ĠFe ynman
Ġchang es
Ġrestaur ant
Ġposs ible
alyz ed
pat ient
Ġbal ance
Ġmel atonin
Ġteac hes
Ġmindful ness
bod y
oan alys
Ġich i
Ġhous es
Ġcharac ter
Ġmyster ious
Ġelev ator
Ġconflic ts
Ġsim ilar
oura ge
Ġprou d
Ġinhab it
ĠSuz uki
Ġconcre te
ĠGarc ÃŃa
Ġobstac les
Ġpremat ure
oanalys is
! âĢĿ
. ,
0 6
0 7
1 00
2 3
5 5
5 8
7 5
A T
A t
A ll
B orn
B ased
C ase
D is
F rankl
G F
G e
G et
L ower
L ogotherapy
L ES
N D
O M
O N
S o
S ee
T H
W orld
b i
b l
c al
c ra
c um
c ular
c ont
c bi
d ra
d ef
e ep
e red
e ight
f u
f ection
g a
g es
g est
g rand
g ency
h ow
h ood
h tml
h aps
i h
i um
l m
l u
l ook
l ast
l ove
l ared
l omo
m it
m ar
m om
m ong
m ore
m ountain
n y
n owing
n itz
n cbi
n ih
n lm
o res
p e
p ost
p rac
p ass
r us
r ive
s ay
s low
s lightly
s till
t u
t al
u is
u le
u ly
u tion
u ge
u ard
u ett
w ould
w rit
x ir
y per
y uk
y dra
z nitz
³ n
¾ ãģ
Â ©
Ã ³n
æ ĸ
Ġ 6
Ġ X
Ġ vel
Ġ icon
Ġ Â©
Ġt ouch
Ġa part
in y
in er
in ter
in ation
in ste
in ner
he l
he mer
re et
re am
re qu
re ci
Ġw id
Ġs un
Ġs uc
Ġs kin
Ġs its
Ġs ix
Ġs weet
at o
ing way
on a
on ment
on str
es ter
es ity
es tiv
it ch
it ting
it ating
is ol
is hed
Ġf at
Ġf if
Ġf ast
Ġf und
Ġf aster
Ġf ields
Ġto ld
Ġto ok
Ġto tal
Ġb at
or o
or hood
Ġc a
Ġc ort
Ġc oun
Ġc ame
Ġc ause
Ġc ultiv
an ish
Ġp ot
Ġp ri
Ġp ray
Ġp retty
âĢ ĵ
Ġm en
Ġm ant
Ġm ill
Ġm ist
al ing
al most
Ġin te
Ġh ur
Ġh ung
Ġh ouse
Ġh yper
Ġth reat
ed entary
Ġd anc
Ġd ang
Ġd ance
Ġl a
Ġl o
Ġl ower
Ġl oss
ar ge
ar ÃŃa
ar cel
as y
as ing
as ts
as hington
le g
le ag
Ġe li
ch allenges
ur ally
ent h
ent le
et ed
et ween
Ġn ove
Ġn ob
Ġn ame
us s
Ġg ame
Ġg ather
Ġg ames
Ġis n
Ġre ve
Ġre ti
Ġre cl
Ġre act
Ġre lease
Ġwe l
os ite
im es
ce tic
ig es
Ġha bit
ot ed
ic an
ic ian
ec ting
ec ret
ut ation
Ġfor ward
ĠI I
ĠI GF
Ġst e
Ġst ation
ir onment
Ġbe gan
id er
Ġan cest
se arch
th an
ro l
st yle
ĠS ou
ĠS ur
od ay
ac es
ac tion
ĠThe rapy
Ġex act
Ġex istential
Ġat e
Ġat tend
Ġdo or
Ġdo cum
Ġwor ries
Ġus ually
am a
Ġse en
Ġse as
Ġse vent
ĠA d
ĠA nd
ĠA fter
ĠA ccording
ĠA mer
ĠT r
ĠT ai
ĠT HE
res ent
ate g
ate gy
ies t
ĠO f
ĠO p
Ġal ive
Ġal tern
Ġcom fort
âĢĶ âĢĶ
il t
il ing
ĠJ iro
ers ed
ep eat
ĠH er
ĠH is
ĠH ouse
ĠH ydra
ĠM an
ĠM ost
ĠM akes
ĠM asters
ĠM iyazaki
ol as
ol ester
if ied
Ġr ate
Ġr ice
Ġr itual
Ġr ule
Ġsh all
Ġsh ape
oc tor
ich olas
ab ly
ab ility
ĠF ran
ĠF oll
um b
um ans
ĠB r
ĠC ent
Ġch allenge
Ġch olester
ĠL CC
ud y
em ingway
og raph
Ġpro ver
Ġpro gram
ist ed
ist les
our ces
all es
Ġj oy
Ġar ch
Ġar tic
ĠE s
Ġsp ace
Ġsp orts
ĠR epeat
Ġme at
ag o
ag az
aw a
Ġthem selves
tic ing
ĠP h
ĠP sych
ĠD r
ĠD iet
Ġle ave
ĠG e
ĠG o
Ġimp ortance
Ġad renal
Ġso ld
Ġres ilient
li ves
Ġwork ed
ous and
te ve
te chn
we re
ĠN o
ĠN icholas
ĠIn tern
ĠIn stitute
Ġmind s
ĠY ang
Ġcont act
In cre
Ġde f
Ġcomp ared
Ġcomp any
Ġcomp uter
com mon
ten sion
ãģ į
Ġtw enti
ĠOkinaw an
Ġpur ifies
ercis es
Ġcomm it
und ay
Ġany where
Ġsee ks
Ġway s
Ġper se
Ġper form
Ġnat urally
pl ace
Ġsm artph
Ġsm iling
enti f
Ġrest riction
Ġfocus ing
Ġfocus es
Ġpass age
Ġthrough out
Ġadd ed
Ġcons um
Ġcons ists
ĠV illage
Ġrel ig
per ts
Ġbook s
Ġ201 1
Ġ201 5
Ġcontro lling
ont ana
Ġpres ident
Ġend ed
Ġend less
cl ude
Ġtr ans
Ġtr ansl
Ġapp reci
Ġeat en
Ġmeaning ful
lic ity
wh ile
Ġsu ic
Ġpar ts
Ġpar alle
Ġemo tional
ĠK nowing
Ġmed al
feren t
Ġfriends hips
be g
Ġro b
Ġbu y
Ġread y
pro v
Ġra ise
Ġra ising
tif ic
Ġear th
Ġass ign
ces c
tim al
ĠAn xiety
Ġexper ts
Ġturn ed
esp read
Ġtown s
Ġmod erate
Ġmod eration
Ġcommun ities
ex p
med i
Ġser ies
St ep
Ġsur f
Ġcar ried
Ġconf ir
Ġdrink ing
Ġtry ing
Ġinterview ed
ried man
work ing
Ġtyp es
Ġplay s
ip ate
Ġtre mend
Ġche st
Ġche ck
Ġincre asing
Ġhar m
lec t
lec ted
Ġyoung er
Ġhead s
Ġstart ed
Ġsup er
Ġsup ercentenarians
Ġconn ected
pr ising
Ġreal ized
ĠSto ics
Ġwa ves
Ġwa ist
Ġgener al
Ġred uce
Ġantioxid ants
Ġcalor ie
Ġdistrac ted
Ġcirc le
Ġpeace ful
Ġinsp ir
cha ffer
ĠBe ing
ustr ated
Ġ198 8
ien ces
kn own
Ġ3 0
Ġcall ed
Ġintern al
igin ally
Ġimper manence
Ġimm une
Ġunder stand
osp ective
osp ital
Ġfru its
ĠOn ce
Ġrespons ibility
Ġneighb orhood
htt p
htt ps
Ã© ctor
Ġcat astrop
Ġpo em
Ġmis sion
Ġlar ge
Ġnutrition al
Ġreac hed
Ġrequ ire
Ġbeh ind
Ġexce ll
ĠEx hale
ĠGet ting
ãģĦ ãģ
clud ed
augh ter
Ġskill s
Ġstreng th
Ġstreng then
bo ard
happ y
Ġopp osite
Ġwat ch
Ġsitu ation
Ġtool s
Ġcit rus
Ġmon th
Ġrec ogn
Ġrecom mend
Ġconcentr ation
ribut ed
Ġcelebr ating
EN T
full y
á¹ ĥ
Ġill ness
Ġhig hest
Ġsepar ate
Ġvari ety
Ġview ed
ĠNass im
Ġelimin ate
Ġobsess ive
Ġextra ordinary
dif ferent
Ġes cape
Ġtrou ble
Ġwal ks
Ġmic roflow
Ġinit ial
Ġhorm ones
Ġguid es
ĠIm ich
ĠApp lications
ĠMir alles
ĠLess ons
Ġkne es
Ġtwel ve
Ġrelations hip
Ġsympt oms
Ġvisual ization
Ġansw er
Ġfunc tion
Ġinhabit ants
uett ner
yuk y
æĸ Ĳ
Ġvel ocity
Ġicon ic
inter ac
inste in
hemer al
Ġwid espread
Ġcort isol
Ġmist akes
Ġhyper tension
arcel ona
Ġeli xir
Ġnove l
Ġancest ors
Ġdocum entary
Ġsevent een
ĠAmer ican
Ġcholester ol
agaz ine
ĠIntern et
Ġparalle l
Ġtremend ous
Ġcatastrop he
1 7
1 8
2 2
3 0
6 7
7 7
9 8
A B
A I
A N
A d
A l
A nd
A void
A rt
A ging
B udd
B ecause
B radley
C T
C Ã
C ES
C sikszentmihalyi
E D
E ating
F low
F ood
G AI
H Ã
H el
H app
H aving
H ara
I RA
I GAI
J obs
K IGAI
L C
L I
L ife
L LES
M C
M iyazaki
N ot
N CES
O K
O r
O ther
O NG
P rot
P MC
R ed
R ec
R OM
S T
S p
S he
S an
S ome
T hat
T HE
V I
W alk
W hy
W abi
Y oga
a ith
a res
a ves
b t
b est
b ook
b ecause
b efore
c ing
c hen
c all
c hed
c ertain
d f
d on
d et
d ec
d ist
e an
e ated
e enth
f r
f in
f fe
f ill
f our
f uc
f ord
f ound
f oll
g ress
g ree
g ood
g land
h ar
h as
h ome
h uman
i ke
i able
i olog
j ust
j asmine
l if
m c
m d
m m
m is
m en
m ake
m inut
n ame
o v
o red
p op
p ort
p erson
p oses
p enguin
p mc
r or
r al
r ine
r ather
r oss
r ategy
s on
s es
s th
s am
s ome
s ix
s ecret
t in
t own
u f
u el
u its
u ish
u ties
u gg
v ive
w en
w or
w ed
w are
w itz
w hel
x and
y m
² æĸĲ
Ġ 4
Ġ 7
Ġ ing
Ġ ur
Ġ ver
Ġ id
Ġ zone
ī CT
į A
ĵ ãģ
Ġt un
Ġt able
Ġt ried
Ġa ir
in ic
in ten
in ning
he mat
re p
re w
re ed
re tire
Ġthe ory
Ġw r
Ġw all
Ġw ine
Ġw aking
Ġw ave
Ġw ife
Ġw hether
Ġs en
Ġs tic
Ġs udd
Ġs ource
Ġs ides
Ġs edentary
er ve
er ful
er gency
at s
at ic
at ors
on y
es n
es cri
ou rag
ou ds
it or
it ate
it ect
it chen
is on
is ed
is hing
is ao
en ly
en ic
en ec
Ġf os
Ġf ir
Ġf ight
Ġf ather
Ġf ire
Ġf av
Ġf requ
Ġf estiv
Ġf aith
Ġto r
Ġto fu
Ġb ed
Ġb ind
Ġb low
Ġb rough
or row
or osis
Ġc r
Ġc er
Ġc hes
Ġc oin
Ġc ups
Ġc ouch
Ġc ris
Ġc ustom
an h
an o
an ci
Ġp ace
Ġp age
Ġp ull
Ġp ages
Ġp unch
Ġm ap
Ġm eth
Ġm ultitasking
Ġin clude
Ġh or
Ġh idd
Ġh ope
Ġh uge
Ġd ou
Ġd im
Ġd oses
Ġd ying
Ġd inner
Ġd ream
Ġd iges
Ġl ang
Ġl ung
ar ts
ar ms
ar ao
ve re
as tic
as tern
le xand
Ġe ld
Ġe qu
Ġe con
Ġe gg
om en
om od
ur t
ur y
ll y
ll ed
et ter
et ition
Ġn ine
Ġn ice
Ġn ational
us hing
Ġg ra
Ġg ave
Ġg ods
Ġre bu
ra ig
ly ing
Ġwe ak
Ġwe ight
os en
im um
im ia
im ary
ce p
ce ll
ig rap
Ġhe ard
ot a
ot s
Ġli e
Ġli k
Ġli es
ic a
ic als
ec tions
ut ers
Ġst ro
Ġst ores
Ġst reet
ir atory
ir tu
Ġbe low
id al
id ence
ke y
ke ep
Ġas cetic
ter m
se ll
se em
se veral
th rough
st ress
st ances
ĠS m
ĠS ome
ĠS earch
ĠS chaffer
Ġor ang
ap ov
her s
Ġare as
un ing
âĢĿ )
ac tivities
ul a
ul ties
Ġcon str
Ġcon dition
Ġcon cluded
Ġfr ustrated
ĠW ar
ĠW rit
ĠW ork
ĠW ater
ĠW isdom
ĠW ashington
Ġdo z
Ġwor st
Ġwor ks
am ong
am ins
Ġse renity
ĠA ll
ĠA chie
ĠA ND
ĠT O
ĠT oy
ĠT imes
ĠT oday
ad io
res p
ĠO wen
Ġmo tiv
est ing
il es
il ot
ep t
ill a
ĠH umans
ĠH emingway
ĠH Ã©ctor
ĠH anh
el f
el ax
ĠM y
ĠM art
ĠM eth
ĠM edia
ĠM odern
if t
if orn
up ational
Ġr is
Ġr id
rou p
Ġsh ared
ich ard
ab el
ĠF ind
ĠF uk
um stances
to o
ĠB rain
ĠB uettner
ĠB arcelona
ĠC ons
ĠC yn
ĠC ultiv
ĠC raig
ĠC apov
ear cher
Ġch ose
Ġch ild
Ġch oose
Ġch osen
Ġab ilities
ĠL earn
ĠL iving
ĠL ocals
em o
em pt
Ġv o
Ġv ol
Ġv irtu
og le
og enic
Ġpro ject
Ġpro gress
Ġwas n
eop orosis
Ġac tion
Ġac com
Ġac cess
Ġac ross
Ġac cep
ment al
Ġj asmine
Ġk ami
Ġk itchen
Ġk arao
ort ality
Ġar ri
Ġar rive
ach ines
ĠE n
ĠE ven
ĠE ast
ĠE instein
ĠE astern
Ġsp ent
Ġsp rit
Ġsp aces
ĠR ed
ĠR yuky
Ġme et
Ġme als
Ġke pt
Ġke ys
ag ed
ag ine
uc k
Ġte levision
ide o
tic ated
ile tin
ĠP l
ĠP r
ĠP er
ĠD on
ĠD uring
rac ted
ne gative
Ġle aving
ĠG er
ĠG AR
Ġun p
Ġun ite
Ġad ap
Ġad op
ough t
Ġwork out
20 0
te en
te levision
ry ing
we ll
ĠN ob
ĠN ature
ĠN ah
ĠIn stead
Ġflow s
Ġob esity
ĠY in
Ġout look
Ġdi verse
Ġdi plomat
Ġde ad
Ġde gener
Ġkeep s
com ple
ff ects
iz ing
iz es
Ġhapp ily
oun g
Ġpr ote
Ġpr imary
tor y
Ġbr ushes
Ġbr istles
ãģ ª
ãģ Ĺ
rain s
Ġpur sue
Ġph ot
Ġover whel
Ġfac ed
ib ilities
Ġcent ral
Ġhealth ier
Ġcl ass
Ġem ergency
Ġshould er
Ġstud ied
me nds
me aning
Ġno tice
Ġno tific
ĠSt retch
ĠSt udio
ĠSt udy
Ġexercis ing
Ġper fect
Ġdown ward
Ġsm ile
ple asure
Ġqu ality
jec ts
ond itions
joy ing
ps ych
Ġbec ame
Ġpre c
Ġpre vent
Ġcons ider
Ġrel ated
per ience
per iences
ĠSh oma
ĠSh lomo
Ġ201 2
Ġ201 7
ber g
rie f
Ġnew sp
sp ir
Ġtr ies
Ġtr ick
Ġapp e
Ġobjec ts
io vas
Ġoff ice
ax imum
Ġro ad
Ġstr ateg
ail able
pro cess
Ġmom ents
Ġear s
Ġim medi
Ġpart y
tim ate
ĠLong est
11 1
Ġsimp licity
Ġgrou ps
Ġreg ard
Ġreg ions
Ġphys ics
Ġwant ed
Ġwrit er
Ġwrit es
Ġser v
Ġbenef it
Ġbenef ited
Ġbenef icial
ĠTh ich
ĠTh ings
Ġaut hors
Ġlet ting
St rategy
av ior
Ġcreat es
Ġcreat ed
Ġcreat ivity
Ġminut e
Ġinv ited
Ġeff ort
ĠCh alleng
ft ware
Ġfull y
Ġloc als
Ġlearn ing
Ġlearn ed
Ġtyp e
Ġtyp ical
tioxid ants
app ear
iqu es
Ġbo asts
Ġche erful
Ġpub lication
Ġincre ases
Ġhar med
Ġhar mon
Ġdec ided
Ġdec ades
Ġdec lared
arc ane
Ġneur osis
An other
Ġbl ock
Ġcertain ly
Ġrep resent
Ġrep eated
oss ible
Ġworry ing
Ġuse ful
ific ation
Ġspend ing
Ġpractic ed
centr ation
pr ing
Ġop ening
Ġwalk ing
Ġsc ene
aly st
Ġnum erous
Ġproduc ed
Ġproduc tion
Ġprom otes
ian ism
tr ospective
Ġwa iting
Ġfl uid
Ġeas ier
Ġkind s
Ġtechn iques
Ġadv ance
Ġadv ice
cient ists
Ġdisc uss
Ġdiscover ing
Ġdevelop ed
Ġsug arcane
Ġcell ular
Ġcalor ic
Sh ikuwas
Ġcirc ulation
Ġcirc umstances
Ġpop ulation
Ġinsp ired
ĠAl so
Ġpassion ate
He llo
eb ook
su ing
Ġaw aren
Ġcur ios
Ġcol leag
Ġcall igrap
Ġhold ing
Ġdet er
ush ima
Ġgard ens
Ġsearch ing
Ġcomb ines
Ġimper fect
Ġphilosop h
Ġimm ersed
Ġschool s
RA NCES
Th ough
Ġcaus ed
Ġcult ures
Ġinf lu
ĠSp anish
Ġexplain s
Ġexplain ing
Ġcontin ue
Ġcontin ually
Ġcontain s
Ġ199 0
Ġ199 8
Ġrespons ible
ĠChin a
Ġbirthday s
Im pro
Ġsn ow
Ġsub ject
Ġcare er
Ġmet al
Ġint ake
Ġdri ving
Ġlist ening
Ġey e
Ġgl asses
Ġstand ing
Ġbeh avior
Ġanim als
ĠWh o
ĠWh ile
Ġchang ed
Ġtell s
Ġrestaur ants
ĠShinto ism
Ġsatisf y
Ġsatisf action
food s
pos ition
sing le
sur round
Ġocc ur
real ized
Ġsou nds
Ġsitu ations
Ġgrand children
Ġrecom mends
though ts
ĠSan pin
Ġconcentr ate
ĠTe chn
ĠCal iforn
Ġprov ince
Ġact ually
Ġenc ourag
Ġleg s
Ġregular ly
Ġextreme ly
Ġbreak fast
Ġspecial ists
Ġstimul i
Wh ile
aren ts
no on
Ġaff ected
Ġsum mer
Ġfle eting
Ġfrag ile
Ġcard iovas
Ġpress ure
Ġdest iny
Ġlim it
Ġep hemeral
Ġbelie ve
Ġbelie ved
Ġorigin al
ĠBre znitz
ĠBre uning
achie ve
Ġexpl ore
ãģ® ãģ
Ġbecom ing
Ġbecom es
Ġstruct ures
Ġdescri bed
Ġremind s
Ġindic ate
97 8
LO G
Med ical
Pl ume
mun ic
tw o
inst inc
help s
Ġscre en
Ġfail ure
Ġcy cle
Ġcook ing
Ġdem onstr
artic les
Ġwealth y
epp ing
Ġvit amins
Ġenv ironment
ĠRec ords
Ġdiv ine
Ġartis an
Ġrespond ed
ĠThink ing
transl ated
def ined
grand children
mom ent
mountain s
uis ine
Ġ6 0
iner als
Ġsuc cess
Ġbat tle
Ġpot ato
Ġthreat s
Ġnob iletin
Ġreve al
Ġreti red
Ġwel coming
Ġexact ly
ĠTr ue
ĠFran cesc
Ġartic le
ĠGo ogle
Incre ases
Ġdef ined
Ġperse vere
Ġrob ust
Ġsurf ing
Ġconfir med
Ġharm ful
Ġexcell ent
Ġmonth s
interac ting
CÃ įA
HÃ īCT
IRA LLES
Prot ection
Rec ent
San pin
call ed
fuc ianism
mis sion
Ġver ified
Ġid entif
inten sity
Ġstic k
Ġsudd enly
enec a
Ġfos ter
Ġfrequ ently
Ġbrough t
Ġches s
Ġcris is
anci al
Ġpull ing
Ġhidd en
Ġdim ension
Ġdiges tive
Ġlung s
lexand er
Ġecon om
omod oro
imia o
Ġorang es
Ġconstr uction
ĠToy ama
ĠFuk ushima
ĠCapov illa
earcher s
Ġvirtu ous
Ġaccom pl
Ġkarao ke
Ġarri ved
Ġsprit es
ĠGAR CÃįA
ĠNah a
Ġdegener ative
Ġoverwhel med
Ġnewsp aper
Ġstrateg ies
ĠChalleng ing
Ġharmon y
Ġdiscuss ed
Ġawaren ess
Ġcurios ity
RANCES C
ĠCaliforn ia
Ġencourag es
Ġcardiovas cular
HÃīCT OR
) ;
. âĢĻ
/ #
/ ?
2 4
3 6
3 00
6 8
9 6
A D
A r
A pp
A mong
A lexander
B N
B oth
B efore
B etter
C e
C opyright
C over
D C
D o
D on
D ec
E p
E at
E ven
F I
F i
F ran
F ocus
G i
G o
G re
G reat
G rains
H ong
I N
I S
I V
I X
I se
I ES
I ON
J ust
J iro
K eep
L T
L ittle
L ived
L ocals
M A
M y
M ing
M ic
M akes
M ental
M eth
M embers
M arÃŃa
N e
N ow
N ED
O U
O ld
O OK
P a
P er
P ro
P eople
P rac
P ress
P sych
P rom
Q igong
R ES
R ituals
R adio
S oy
S ty
S ince
S teve
S unday
S BN
T it
T oy
T rain
T urn
T radition
U E
U n
V E
V II
V III
W u
W or
W ill
W ork
W hether
W ords
a j
a ved
a ffects
b al
b us
b ec
b ro
b reat
b all
b jec
b enef
b lue
b oss
b ooks
b asic
b etween
c he
c ar
c il
c ol
c reat
c are
c lear
c ared
c ern
c irc
d i
d p
d id
d ies
d ri
d anc
d ire
d raw
d amage
d octor
e es
e al
e ak
e em
e qu
e nds
e ks
e ating
e get
e xt
f ra
f am
f ers
f ting
f ree
f irst
f rie
f ield
f Ã©
f asting
f ields
f usion
g n
g r
g ed
g ot
g ic
g ive
g ard
g row
h a
h ur
h us
h ind
h ok
h ost
h our
h one
h aving
h ouse
i at
i ing
i rac
i ors
i ps
i xt
i verse
j u
j oking
k an
k awa
l ig
l ot
l am
l ies
l ive
l eng
l timate
m o
m p
m y
m ing
m us
m uch
m ob
m ens
m abui
m ultitasking
m bl
m orrow
n a
n in
n es
n ed
n est
n ers
n um
n ect
n utrition
n ounced
o h
o or
p o
p on
p ed
p ay
p ut
p ain
p hen
p ore
p ais
p ict
p df
p ushing
r as
r up
r ast
r ust
r ons
r ont
r uits
r nest
s he
s ou
s un
s ive
s ud
s imp
s uch
s ence
s ub
s ign
s itu
s ince
s ource
s itting
t as
t ra
t op
t ak
t reat
t les
t ition
t aking
t able
t akes
t ask
u g
u x
u ig
u ff
u als
u ary
u ima
u ji
v a
v ant
v ile
v olves
v alue
v esting
v ailable
w o
w ing
w ant
w ik
w hether
x ts
x ibility
y al
y oga
y oung
z uk
z ones
« á¹ĥ
Å į
Å «á¹ĥ
Ġ 5
Ġ :
Ġ [
Ġ er
Ġ ut
Ġ est
Ġ ik
Ġ rain
Ġ ign
Ġ vers
Ġ 90
Ġ 978
ĩ i
ı ãģ
Ł ãģį
Ġt al
Ġt out
Ġt el
Ġt ast
Ġt ri
Ġt ree
Ġt ied
Ġt ension
Ġt sun
Ġa th
Ġa fra
Ġa vailable
in om
in ite
in terview
in side
he im
he less
Ġo st
Ġo me
Ġo xid
Ġo tak
re f
re nd
re ver
re ally
re ases
re search
Ġw he
Ġw and
Ġw ag
Ġw ide
Ġw ick
Ġw abi
Ġs ent
Ġs ac
Ġs il
Ġs qu
Ġs aw
Ġs ust
Ġs ound
Ġs ens
Ġs ave
Ġs ail
Ġs ample
Ġs ize
Ġs ana
Ġs ano
Ġs cientists
er as
er id
er ved
er ries
at t
at ur
at te
at ible
at tention
at ives
on ed
on et
es ts
es ide
es ire
es lie
es enn
nd ing
nd ia
nd ering
ou d
it iz
it ary
it ors
is s
is ans
is hes
en ed
en ces
Ġf it
Ġf ly
Ġf ul
Ġf ant
Ġf ab
Ġf ine
Ġf air
Ġf ash
Ġf asting
Ġf urther
Ġf uel
Ġto p
Ġto x
Ġto mat
Ġto morrow
Ġb ow
Ġb ot
Ġb all
Ġb one
Ġb ite
Ġb oss
Ġb ands
Ġb ars
Ġb iolog
Ġb ought
or ie
or bed
Ġc ity
Ġc ost
Ġc ake
Ġc rit
Ġc ities
Ġc of
Ġc orn
Ġc overed
Ġc uisine
an k
an ti
an ks
an tifragile
an tifragility
an tioxidants
Ġp en
Ġp et
Ġp ie
Ġp ad
Ġp ick
Ġp ushes
Ġp acks
Ġp itch
Ġp arents
Ġm a
Ġm er
Ġm as
Ġm id
Ġm ess
Ġm em
Ġm ag
Ġm und
Ġm ember
Ġm asters
Ġm idd
Ġm embers
Ġm ortality
Ġm inerals
al ter
al low
al ect
al ways
al ready
al utation
Ġin ter
Ġin ner
Ġin clud
Ġin comple
Ġin trospective
Ġh it
Ġh un
Ġh ide
Ġh ob
Ġh ired
Ġh ospital
Ġh Å«á¹ĥ
Ġth ousand
ed s
ed ly
ed itation
Ġd ess
Ġd ies
Ġd ue
Ġd rank
Ġd ates
Ġd yn
Ġd rove
Ġl os
Ġl ay
Ġl and
Ġl ine
Ġl aw
Ġl ines
Ġl asting
Ġl osing
Ġl uck
ar k
ar p
ar in
ar is
ar ity
ar ound
ti z
ti le
ti ful
as is
as ion
le en
le aving
Ġe ver
Ġe ternal
Ġy uima
om p
om house
ch ul
ch ange
ch arge
ch witz
ur b
ur sing
ent ally
et es
et us
et itive
et eenth
Ġn am
Ġn ort
Ġn uc
Ġn ick
Ġn av
Ġn ursing
us ing
us es
us ed
us ai
us ive
us el
us ual
us ters
us ions
us sell
us chwitz
Ġg e
Ġg en
Ġg ong
Ġg ate
Ġg one
Ġg raph
Ġg ently
Ġg entle
Ġg ym
Ġg host
Ġre ward
Ġre leas
Ġre produc
Ġre volves
Ġre ndering
ly mp
Ġwe aring
os ity
im e
im m
ay ing
ce ed
ce iving
ig id
ig ue
ig ins
ig ais
ig ured
Ġhe llo
ion es
Ġli ver
Ġli ps
Ġli br
ic ient
ic ted
ic iones
ec ific
ec rets
ec essor
ut a
ut ter
Ġwh atever
Ġfor t
Ġfor th
Ġfor ces
Ġfor got
ĠI V
ĠI sh
ĠI KIGAI
ĠI SBN
ĠI ndia
Ġst ab
Ġst ated
Ġst yle
Ġst ages
Ġst ories
Ġst yles
Ġst arts
Ġst epping
Ġst uff
ir l
ir ds
Ġbe ach
Ġbe ast
Ġbe lly
id em
id ne
Ġwith stand
ke pt
Ġas p
Ġas leep
Ġan alyz
Ġan ger
Ġan tiaging
Ġan alyzed
Ġan nounced
ter ies
se ven
se renity
th ousand
st ar
st ood
st eps
st raight
ĠS er
ĠS it
ĠS up
ĠS hen
ĠS ard
ĠS ushi
ĠS teve
ĠS unday
ĠS wed
ĠS ony
ĠS pring
ĠS eneca
ĠS imiao
ĠS atur
ĠS alutation
ĠS chul
ĠS ecrets
Ġor ange
Ġor igins
ap ers
ap Ã³n
her n
her self
od erate
Ġare n
un k
un ity
un te
un til
un set
un ately
fe w
ac cess
ac cording
op his
op ilot
ul in
ul ting
Ġcon vers
Ġcon feren
Ġcon cer
Ġex cess
Ġex hal
Ġex ists
Ġex tend
Ġex ternal
ess ed
Ġfr ustration
ĠW i
ĠW hy
ĠW abi
ĠW inst
ai i
ai red
ai kan
ie ties
Ġne utr
am ic
am ine
am ics
Ġse x
Ġse ated
ĠA c
ĠA r
ĠA mong
ĠT op
ad d
ad dition
res ents
res iding
ak a
Ġlife time
ĠO F
ĠO ver
ĠO ther
ĠO bjec
ĠO kawa
ĠO lymp
Ġal ign
Ġal arm
Ġal leg
ain ed
est riction
est yles
est eem
âĢĶ .
Ġgo ld
il i
il k
il ed
ĠJ ust
ĠJ wing
ĠJ apÃ³n
red ient
red ict
ĠH ar
ĠH ay
ĠH ir
ĠH ong
ĠH aw
ĠH ave
ĠH app
ĠH undred
ĠH ospital
ight en
el ago
el lect
el pais
ĠM in
ĠM ake
ĠM uch
ĠM ove
ĠM ore
ĠM ihaly
ĠM use
ĠM arÃŃa
ĠM ontana
ĠM agazine
ĠM isao
ĠM achines
ĠM aximum
ĠM IRALLES
ĠM editation
and ing
and mar
and oned
and arin
ol a
ol ic
ol ate
ol ved
ol ute
ol ution
if y
if ford
Ġr ic
Ġr ange
Ġr ivers
Ġsh ap
Ġsh ort
Ġsh are
Ġsh aring
Ġsh arp
oc c
oc olate
ok usai
ab dom
ab etes
ĠF ace
ĠF ound
ĠF uture
ĠF ix
ĠF urther
ĠF ontana
ĠF riedman
ĠF ROM
ĠF RANCESC
um a
um ing
um es
um is
um atic
ving s
Ġcan e
Ġcan vas
ĠB l
ĠB y
ĠB urn
ĠB ert
ĠB radley
ĠB asic
ĠB etween
ĠB OOK
ĠC an
ĠC ont
ĠC oll
ĠC reate
ĠC onditions
Ġnot es
Ġall owing
Ġch at
Ġch ance
Ġch ron
Ġch ocolate
Ġab andoned
Ġhis tory
ĠL ow
ĠL os
ĠL ab
ĠL LC
ĠL ONG
ĠL uig
ĠL eslie
ĠL andmar
Ġbut ton
Ġbut sud
Ġv ac
Ġv ib
Ġv ary
Ġv ida
Ġv ideo
og rap
og ue
Ġfe at
Ġfe ature
Ġpro ven
Ġpro per
pp ed
the rapy
Ġwas te
Ġwas ted
ist ry
our n
our selves
Ġac tiv
Ġac cel
Ġj ud
Ġj eal
Ġk new
Ġk idne
ort al
Ġar g
Ġar m
Ġar ise
ach ing
ĠE ight
ĠE pict
ĠE rnest
Ġsp ort
Ġsp ine
Ġsp ring
Ġsp ee
Ġsp leen
Ġ( âĢľ
ome res
qu ake
qu ick
ĠR out
ĠR ob
ĠR elax
ĠR ichard
ĠR ussell
ĠR estriction
Ġme al
Ġme eting
art isans
ren t
Ġte nds
Ġte xt
rap ies
Ġ1 20
Ġ1 12
Ġ1 50
Ġ1 16
tic es
ĠP ost
ĠP rac
ĠP ub
ĠP ower
ĠP ray
ĠP omodoro
ĠP unset
ĠD ec
ĠD ef
ĠD aily
ĠD octor
rac ked
Ġup on
Ġup ward
Ġle aves
ri ate
ri ving
ri ble
ĠG od
ĠG ain
ĠG ame
ĠG entle
ĠG roup
Ġun a
Ġun ity
Ġun hur
Ġun iverse
Ġun usual
Ġimp osing
Ġimp rove
Ġimp ossible
Ġad vers
Ġad ults
Ġad just
Ġman age
Ġman aged
ress ing
ress ed
Ġso ftware
Ġres ults
Ġres ources
li z
li ed
li ved
ough ly
ous y
20 10
20 14
20 16
20 17
te a
te am
ci er
ci ence
we il
we ight
ĠN or
ĠN hat
ĠN ever
ĠIn hale
ĠIn clud
Ġfo rever
ĠY our
ĠY uk
Ġdis h
Ġdis hes
Ġdis order
Ġcont rast
In stead
Ġdi ary
Ġdi rec
Ġdi alect
Ġdi abetes
Ġsec tion
Ġde v
Ġde vo
Ġde gree
oy a
Ġcomp et
Ġcomp ass
Ġcomp lain
Ġcomp aring
com es
Ġhad n
ret ting
Ġhapp iest
oun ter
Ġpr ide
Ġpr ison
Ġbr other
ĠHe re
ãģ Ĥ
Ġpat rons
ĠWe b
ob al
rain ed
ran o
tain s
Ġag ility
Ġag reed
Ġpur ity
Ġpur suing
Ġph ones
Ġph oto
Ġover all
Ġover coming
Ġfac es
ib erate
Ġ20 00
Ġcent ered
Ġhealth ful
ore a
und anc
Ġcl im
Ġcl ot
Ġcl inic
Ġcl arity
Ġcl usters
Ġem ph
Ġshould n
Ġstud io
co very
me ate
rit ual
rit ann
Ġthere by
ĠSt op
ĠSt ress
Ġper i
Ġper ce
Ġper haps
Ġper meate
Ġprac tition
for ce
for ms
for med
Ġafter noon
til ity
aus es
ĠU s
ĠU ltimate
ĠU rano
Ġam id
Ġwhere as
Ġqu est
Ġqu ite
tiv ated
00 58
Ġback ward
Ġrest ing
Ġneed ed
Ġneed les
ors ed
Ġpass ing
Ġadd ing
Ġadd icted
Ġlook ed
ari ly
Ġstress ed
Ġknow s
Ġpurpose ful
ĠV iew
ĠV ien
Ġseem ed
Ġstill ness
ĠSh rine
ĠSh ift
Ġ201 0
ber t
ber ries
Ġenjoy able
orit e
ang a
Ġpres ence
Ġpres erving
Ġpres erve
Ġend orsed
Ġnew s
olog ist
Ġ19 70
sp end
sp eak
sp ecific
Ġtr ig
Ġtr uly
Ġapp ro
Ġapp ren
Ġsecret os
ĠUn ify
wh atever
Ġsu ffer
Ġsu ffe
ative ly
Ġpar a
Ġpar k
Ġpos es
ĠK ur
ĠK enn
ĠK uman
ĠK eep
Ġmed ic
Ġmed ical
Ġmed ium
Ġmed itate
feren ces
be en
der iv
Ġro oted
Ġfin ished
Ġfin ancial
Ġbu ilt
Ġgreat est
Ġread er
Ġprocess ing
Ġprocess es
Ġprocess ed
man y
man ent
pro ject
ener gy
Ġear ned
Ġass er
Ġsmall er
itu ally
Ġcould n
tim istic
ĠAn tiaging
Ġresp iratory
Ġexper ien
11 4
cent enarians
cent ury
ever al
fore arms
Ġturn s
Ġturn ing
Ġreg ion
Ġreg ener
Ġphys ic
ex ist
ex ercises
ex periences
go ing
go es
iv al
iv ot
Ġwrit ten
Ġser ve
Ġser ious
Ġhigh ly
Ġhigh way
Ġgre w
Ġgre eted
ĠTh ose
Ġaut hen
Ġaut omat
Ġbas ed
Ġind ex
Ġlet har
Ġform er
Ġform ing
Ġform al
Ġform ula
cover ies
St ress
St ates
St udio
Ġsur prising
Ġsur vive
ise ly
Ġcreat ive
Ġpal ace
Ġinv est
Ġinv olved
Ġele ment
Ġeff ective
Ġconf ron
Ġconf ront
au tiful
Ġsing ing
Ġslow s
Ġslow ly
Ġpleas ant
Ġatt ack
Ġatt ributed
Ġatt empt
Ġcomple x
Ġcomple ting
Ġcommon ly
Ġpresent ed
Ġdifferen ce
Ġdifferen ces
gan ization
gan ju
ath a
Ġlove ly
rand omhouse
ĠNe ither
Ġobs ession
Ġplay ers
ip ants
ip elago
long er
Ġ2 7
Ġtre asure
Ġtrain ed
Ġche f
Ġhar a
Ġdec ade
arc her
lec tion
lec tions
Ġhead ing
Ġrelax ing
mat ters
Ġsup por
Ġpoin ts
Ġpoin ting
Ġmat ters
Ġmat hemat
Ġrep etitive
Ġrese archer
Ġconn ections
ĠHow ard
Ġsecond s
centr ating
cri pt
do ors
pr il
pr int
vent ists
vent ures
Ġop timistic
Ġsc atte
Ġsk iing
Ġhundred s
Ġlow ers
Ġreal m
Ġreal ize
Ġones elf
Ġstop ped
ĠSto ic
Ġproduc es
Ġproduc tivity
flow s
reg ion
reg ular
Ġfl av
Ġfl oor
Ġeas ily
Ġgener ation
Ġgener ate
Ġred undanc
str ong
str uc
ĠEvery one
ĠEvery thing
Ġtechn ique
Ġadv anced
Ġadv ises
Ġdevelop ing
Ġdevelop ment
Ġfactor ies
Ġprep ares
Ġsug ges
Ġsug gest
Ġbuild ings
Ġdistrac t
Sh into
Ġq i
rest ed
Ġcap ital
Ġpeace fully
Ġmus ic
Ġmus ician
Ġmay be
Ġinsp ection
Ġdep ends
Ġref er
Ġref ers
ĠAl bert
Ġchapter s
Ġclos est
Ġ198 6
Ġprinci ple
He re
con centration
pur ifies
pur sue
ĠâĢ ¢
Ġess ay
Ġess ence
Ġrad icals
Ġter ms
Ġter rible
Ġaw ake
Ġavoid ing
Ġbre aking
Ġbig ger
Ġcur ious
Ġcol lected
Ġcall s
Ġins isted
Ġhold s
Ġbend ing
Ġcomb ining
Ġrout e
Ġlead ing
Ġimper fection
comp eted
Ġfollow ed
Ġimm ortal
Ġindivid uals
Ġunder stood
Ex istential
Ex ercises
Ex perts
Th ose
Th ank
de al
de velop
gra ce
par tic
ric ation
ĠQ i
Ġtherap ists
Ġfil m
Ġfall ing
Ġcor pore
Ġinf inite
Ġinten sity
ĠSp ir
ĠOn ly
Ġprof essor
Ġspec ific
Ġexplain ed
Ġdise ases
Ġdiscipl ine
Ġdiscipl ined
Ġcontin ues
Ġcontain ed
Ġ200 1
Ġ200 4
Ġ199 6
Ġpartic ipate
Ġpartic ipants
Ġdiffic ulties
Ġbusiness es
Im agine
bu ild
int age
int roduc
Ġsci ence
Ġsub way
Ġcat alyst
Ġcount ries
Ġpor tion
Ġput ting
Ġpred ator
Ġpred ict
Ġpred ecessor
Ġint roduc
Ġint ellect
Ġlar ga
Ġlar gest
Ġgl obal
Ġreac hes
Ġrequ ires
Ġstand s
Ġorgan ism
Ġorgan ized
Ġexce ption
ĠFe el
Ġjoin ed
ĠEd ward
ĠEd uard
ĠEd iciones
ĠPro cess
ĠPro ject
ĠDo esn
Ġdeep er
Ġdeath bed
ãģĦ ãģ®ãģ
Ġposs ibilities
Ġfamous ly
Ġsatisf ied
Ġengine er
Con fusion
Con centrating
On ce
bo at
fort unately
move ment
move ments
will cox
year s
Ġed ition
Ġed itor
Ġtem per
Ġtem ples
Ġopp ort
Ġocc up
real ize
Ġwin ter
Ġwat ers
Ġsou l
Ġsal t
Ġsal ary
Ġsal mon
Ġsol ved
Ġsol itude
enn ia
Ġbad ly
Ġcit iz
Ġmon k
Ġyouth ful
ĠSan cier
ĠTe zuk
ĠOr ganization
ĠCl ifford
ĠCon fucianism
ĠCal ment
ĠCal orie
Ġenc ourage
Ġenc ounter
ĠDis orders
ribut e
Ġcelebr ate
Ġcarry ing
Be yond
Every thing
Long evity
Res earchers
Tai ra
not hing
walk ing
walk ed
world s
á¹ ĩi
Ġaff ect
rel ax
Ġfle xibility
Ġfill ed
Ġfear s
Ġfrag ility
Ġpay ing
Ġinc ense
Ġhig her
Ġep idem
Ġev idence
Ġev olution
Ġstretch ing
Ġbeg in
Ġbeg ins
ĠSe ven
ĠSe renity
ĠWestern ers
ĠAb ove
Ġrun ning
Ġabs ence
Ġabs orbed
Ġabs olute
Ġacc ustom
Ġkill ing
achie ving
Ġspe aking
ĠDe Pa
Ġplan et
Ġprot ect
ãģ® ãģĦãģ®ãģ
Ġapply ing
Ġstruct ure
Ġimag ine
Ġimag ined
Ġimag ining
Ġremain ing
Ġmodel s
Ġindic ates
Ġsurround ed
Ġsurround ings
Ġobsess ing
Ġdetail s
Ġprofession al
Ġscientific ally
LO W
cons cious
dis appear
fac tor
off ers
rot s
sm all
sup ercentenarians
ãĤ ıãģ
Ġu tility
Ġu ganju
Ġir regular
ĠçĶ ²æĸĲ
ĠçĶ Łãģį
health y
Ġoper ator
Ġwind ows
Ġsw itch
Ġbro ad
Ġcy cles
Ġcam p
Ġcam eras
Ġdel iberate
let es
Ġgr own
Ġrece ived
Ġstomach s
Ġconstant ly
epp ers
Ġallow ed
Ġvit ality
ĠRes ilience
ĠRes earch
Ġemploy s
Ġconscious ness
Ġartis ans
transl ator
Ġcorrec t
Ġcorrec tly
Ġcharacter ized
AT A
Get ting
Lower ing
bl ock
cal ories
cont ent
cont rol
mit ted
ny times
prac tice
pass age
say s
uard ian
writ er
¾ãģ ĵãģ
Ġsweet s
Ġfat igue
Ġfif ty
Ġfif teen
Ġca fÃ©
Ġcoun ting
Ġcultiv ate
Ġpri vile
Ġmant ras
Ġmill ennia
Ġinte rests
Ġhur ry
Ġhung er
Ġhung ry
Ġdanc ing
Ġdanc ers
Ġdang er
Ġlo ved
Ġste ad
ĠSou l
ĠSur prising
Ġseas on
Ġseas ons
ĠTai ra
ĠTai ji
ĠOp en
ĠOp timal
âĢĶâĢĶ âĢĶ.
Ġritual istic
ĠFoll ow
ĠFoll owing
ĠBr igid
ĠCent er
ĠCent enarians
ĠLCC N
ograph ic
Ġprover b
Ġprover bs
Ġarch itect
Ġarch ipelago
ĠEs sence
ĠPsych ology
Ġadrenal ine
techn olog
Ġtwenti es
Ġtwenti eth
Ġperform ing
Ġsmartph one
Ġsmartph ones
Ġconsum ed
Ġrelig ion
Ġtransl ated
Ġappreci ate
Ġsuic ide
Ġsuic idal
prov ide
Ġearth quake
exp ectancy
Ġcheck ing
Ġincreasing ly
Ġinspir ational
Ġneighborhood s
ãģĦãģ ¾ãģĵãģ
Ġstrengthen s
Ġrecogn ized
Ġrecommend ed
ENT S
Ġelixir s
77 6
AB I
Al so
Art ists
Budd hism
Hel ps
Happ y
Or iginally
Some times
certain ty
det ail
dec ided
dist racted
ean ne
fr ustration
fin ish
foll owing
minut e
pop ular
sth ash
sam u
Ġing redient
Ġtun a
rep resents
retire ment
Ġwall s
Ġsen iors
escri ption
Ġfir m
Ġfav orite
Ġfestiv al
Ġtor so
Ġbind er
Ġblow s
Ġcer amics
Ġcustom ers
Ġmeth ods
Ġhor iz
Ġdou bt
Ġlang u
Ġeld est
Ġegg s
urt uring
Ġgra ms
Ġrebu ilt
Ġweak ening
Ġlik es
through out
Ġdoz en
ĠAchie ve
Ġmotiv ation
ĠMart in
ĠMeth usel
Ġris ks
ĠCyn ics
ĠCultiv ate
emo tions
Ġvol unte
Ġaccep ting
ĠEn joying
ĠRed es
ĠRyuky u
ĠPer ceiving
ĠGer man
Ġunp redict
Ġadop t
ĠNob el
Ġprote in
Ġphot os
Ġclass ic
Ġnotific ations
psych oanalysis
Ġprec ision
rief ly
Ġappe tiz
Ġimmedi ately
Ġrepresent ing
Shikuwas as
Ġcolleag ues
Ġphilosoph ies
Ġinflu ences
Impro ved
surround ings
Ġoccur s
ĠTechn ique
LOG UE
munic ip
instinc t
Ġdemonstr ating
Ġpotato es
Ġeconom ic
36 4
Ce lebr
Dec ade
Gi ven
Great er
LT c
Prac ticing
Sty les
Tit le
Toy ota
Tradition s
Un fortunately
bal anced
bus iness
blue zones
boss es
cern s
di plomat
dp uf
dire c
draw ing
eget ables
hok u
irac le
joking ly
lam m
leng th
mob ility
nin eteenth
rup ted
simp ly
situ ations
tas ks
vant ages
Åį hoku
Ġut aki
Ġik igais
Ġvers ion
Ġtal ent
Ġtout ed
Ġtel omeres
Ġtri p
Ġtsun ami
Ġath letes
Ġafra id
inom aki
Ġost eoporosis
Ġome let
Ġoxid ation
Ġotak us
rend er
Ġwand ering
Ġwag s
Ġwick er
Ġsac red
Ġsil ence
Ġsust ained
Ġsail boat
erid ian
onet heless
esenn uma
Ġful fill
Ġfab rication
Ġfair ly
Ġfash ion
Ġtomat o
Ġbot tles
Ġcorn er
Ġmund ane
Ġmidd le
Ġinter rupted
Ġinclud ing
Ġincomple te
Ġhun ting
Ġhob by
Ġdess ert
Ġdyn amic
Ġyuima aru
Ġnam ed
Ġnort hern
Ġnuc lear
Ġnick name
Ġnav ig
Ġgate ball
Ġgraph ic
Ġlibr ary
icient ly
Ġforgot ten
ĠIsh inomaki
Ġstab il
Ġstuff ing
ĠSard in
ĠSatur day
ĠSchul te
ophis ticated
Ġconferen ce
Ġconcer t
Ġexhal ing
ĠWinst on
Ġneutr al
ĠObjec tive
ĠOlymp ic
Ġalign ed
ĠHaw aii
ĠHapp iness
ĠMove ments
ĠMuse um
abdom en
ĠFace book
ĠFound ations
ĠFix ation
ĠBurn ap
ĠBert rand
ĠColl ins
Ġchron ic
ĠLuig i
ĠLandmar k
Ġbutsud an
Ġvib r
ograp hy
Ġproper ties
Ġaccel erate
Ġjeal ousy
Ġkidne ys
ĠEpict etus
Ġspee ch
ĠPrac tice
ĠPray er
Ġunhur ried
ĠInclud es
ĠYuk io
Ġdevo tion
ritual istic
ritann ica
0058 11
ĠView s
ĠVien na
specific ally
Ġsuffe red
ĠKenn eth
ĠKuman o
deriv atives
Ġlethar gic
Ġscatte red
Ġredundanc ies
introduc ed
Ġintellect ual
ĠTezuk a
Ġepidem ic
Ġaccustom ed
ĠDePa ul
ãģ®ãģĦãģ®ãģ ¡
ĠMethusel ah
Ġvolunte er
Ġunpredict able
