{"<s>":0,"<pad>":1,"</s>":2,"<unk>":3,"<mask>":4,"!":5,"\"":6,"#":7,"$":8,"%":9,"&":10,"'":11,"(":12,")":13,"*":14,"+":15,",":16,"-":17,".":18,"/":19,"0":20,"1":21,"2":22,"3":23,"4":24,"5":25,"6":26,"7":27,"8":28,"9":29,":":30,";":31,"<":32,"=":33,">":34,"?":35,"@":36,"A":37,"B":38,"C":39,"D":40,"E":41,"F":42,"G":43,"H":44,"I":45,"J":46,"K":47,"L":48,"M":49,"N":50,"O":51,"P":52,"Q":53,"R":54,"S":55,"T":56,"U":57,"V":58,"W":59,"X":60,"Y":61,"Z":62,"[":63,"\\":64,"]":65,"^":66,"_":67,"`":68,"a":69,"b":70,"c":71,"d":72,"e":73,"f":74,"g":75,"h":76,"i":77,"j":78,"k":79,"l":80,"m":81,"n":82,"o":83,"p":84,"q":85,"r":86,"s":87,"t":88,"u":89,"v":90,"w":91,"x":92,"y":93,"z":94,"{":95,"|":96,"}":97,"~":98,"¡":99,"¢":100,"£":101,"¤":102,"¥":103,"¦":104,"§":105,"¨":106,"©":107,"ª":108,"«":109,"¬":110,"®":111,"¯":112,"°":113,"±":114,"²":115,"³":116,"´":117,"µ":118,"¶":119,"·":120,"¸":121,"¹":122,"º":123,"»":124,"¼":125,"½":126,"¾":127,"¿":128,"À":129,"Á":130,"Â":131,"Ã":132,"Ä":133,"Å":134,"Æ":135,"Ç":136,"È":137,"É":138,"Ê":139,"Ë":140,"Ì":141,"Í":142,"Î":143,"Ï":144,"Ð":145,"Ñ":146,"Ò":147,"Ó":148,"Ô":149,"Õ":150,"Ö":151,"×":152,"Ø":153,"Ù":154,"Ú":155,"Û":156,"Ü":157,"Ý":158,"Þ":159,"ß":160,"à":161,"á":162,"â":163,"ã":164,"ä":165,"å":166,"æ":167,"ç":168,"è":169,"é":170,"ê":171,"ë":172,"ì":173,"í":174,"î":175,"ï":176,"ð":177,"ñ":178,"ò":179,"ó":180,"ô":181,"õ":182,"ö":183,"÷":184,"ø":185,"ù":186,"ú":187,"û":188,"ü":189,"ý":190,"þ":191,"ÿ":192,"Ā":193,"ā":194,"Ă":195,"ă":196,"Ą":197,"ą":198,"Ć":199,"ć":200,"Ĉ":201,"ĉ":202,"Ċ":203,"ċ":204,"Č":205,"č":206,"Ď":207,"ď":208,"Đ":209,"đ":210,"Ē":211,"ē":212,"Ĕ":213,"ĕ":214,"Ė":215,"ė":216,"Ę":217,"ę":218,"Ě":219,"ě":220,"Ĝ":221,"ĝ":222,"Ğ":223,"ğ":224,"Ġ":225,"ġ":226,"Ģ":227,"ģ":228,"Ĥ":229,"ĥ":230,"Ħ":231,"ħ":232,"Ĩ":233,"ĩ":234,"Ī":235,"ī":236,"Ĭ":237,"ĭ":238,"Į":239,"į":240,"İ":241,"ı":242,"Ĳ":243,"ĳ":244,"Ĵ":245,"ĵ":246,"Ķ":247,"ķ":248,"ĸ":249,"Ĺ":250,"ĺ":251,"Ļ":252,"ļ":253,"Ľ":254,"ľ":255,"Ŀ":256,"ŀ":257,"Ł":258,"ł":259,"Ń":260,"Ġt":261,"Ġa":262,"in":263,"he":264,"Ġo":265,"re":266,"Ġthe":267,"Ġw":268,"Ġs":269,"er":270,"at":271,"ing":272,"on":273,"es":274,"nd":275,"ou":276,"it":277,"is":278,"en":279,"Ġf":280,"Ġto":281,"Ġb":282,"or":283,"Ġc":284,"an":285,"Ġof":286,"Ġp":287,"âĢ":288,"Ġm":289,"Ġand":290,"al":291,"Ġin":292,"Ġh":293,"Ġth":294,"ed":295,"Ġd":296,"Ġl":297,"ar":298,"ve":299,"ti":300,"as":301,"le":302,"Ġe":303,"Ġy":304,"om":305,"Ġyou":306,"ow":307,"ch":308,"ur":309,"ll":310,"ent":311,"et":312,"Ġn":313,"us":314,"Ġg":315,"Ġis":316,"âĢĻ":317,"Ġre":318,"Ġon":319,"ra":320,"ly":321,"Ġthat":322,"Ġwe":323,"os":324,"ver":325,"im":326,"ay":327,"ce":328,"ig":329,"Ġhe":330,"Ġha":331,"ion":332,"The":333,"ot":334,"Ġli":335,"ic":336,"ec":337,"ut":338,"Ġwh":339,"ld":340,"Ġfor":341,"ĠI":342,"Ġst":343,"ir":344,"ith":345,"Ġbe":346,"id":347,"Ġyour":348,"Ġwith":349,"ke":350,"Ġas":351,"Ġan":352,"ter":353,"Ġit":354,"se":355,"th":356,"ro":357,"ong":358,"st":359,"ĠS":360,"Ġor":361,"ap":362,"her":363,"od":364,"Ġare":365,"un":366,"âĢľ":367,"âĢĿ":368,"fe":369,"ac":370,"op":371,"Ġour":372,"ity":373,"ul":374,"ĠThe":375,"Ġcon":376,"Ġex":377,"ess":378,"Ġat":379,"ation":380,"Ġfr":381,"ĠW":382,"ts":383,"Ġdo":384,"Ġwor":385,"Ġus":386,"ai":387,"ie":388,"Ġne":389,"am":390,"tion":391,"igh":392,"Ġse":393,"Ġhave":394,"ge":395,"ĠA":396,"ĠT":397,"ad":398,"res":399,"ate":400,"ak":401,"ies":402,"Ġlife":403,"ĠO":404,"ind":405,"Ġmo":406,"Ġal":407,"very":408,"ĠâĢľ":409,"out":410,"ain":411,"Ġcom":412,"est":413,"âĢĶ":414,"Ġgo":415,"il":416,"ĠJ":417,"ant":418,"ers":419,"ep":420,"ive":421,"ill":422,"red":423,"ĠH":424,"ight":425,"el":426,"ĠM":427,"Ġby":428,"and":429,"ol":430,"if":431,"up":432,"Ġr":433,"rou":434,"hen":435,"Ġtheir":436,"Ġfrom":437,"low":438,"Ġsh":439,"oc":440,"ose":441,"ich":442,"gh":443,"ok":444,"ab":445,"ĠF":446,"ould":447,"um":448,"ost":449,"ting":450,"ving":451,"Ġcan":452,"Ġthis":453,"Ġone":454,"to":455,"ĠB":456,"ĠC":457,"ings":458,"Ġnot":459,"apan":460,".âĢĿ":461,"ear":462,"Ġall":463,"Ġch":464,"ure":465,"Ġab":466,"Ġhis":467,"Ġthey":468,"ves":469,"ĠL":470,"Ġwho":471,"ik":472,"ud":473,"imp":474,"em":475,"Ġbut":476,"ard":477,"Ġv":478,"og":479,"Ġfe":480,"Ġpro":481,"pp":482,"ĠJapan":483,"the":484,"Ġwas":485,"ist":486,"Ġlong":487,"eop":488,"reat":489,"our":490,"all":491,"Ġac":492,"ment":493,"Ġj":494,"Ġk":495,"eople":496,"ake":497,"ook":498,"one":499,"ort":500,"Ġday":501,"Ġtim":502,"Ġar":503,"ach":504,"ans":505,"ĠE":506,"Ġsp":507,"Ġen":508,"Ġevery":509,"Ġ(":510,"ally":511,"own":512,"ome":513,"qu":514,"ther":515,"ĠR":516,"igai":517,"ine":518,"Ġme":519,"art":520,"Ġke":521,"ren":522,"ag":523,"aw":524,"uc":525,"Ġte":526,"Ġthem":527,"erc":528,"rap":529,"ide":530,"Ġ1":531,"tic":532,"Ġwhich":533,"Ġmore":534,"ven":535,"Ġpeople":536,"Ġtime":537,"ile":538,"ĠP":539,"ast":540,"ust":541,"Ġget":542,"ĠD":543,"nds":544,"rac":545,"les":546,"ne":547,"ved":548,"Ġup":549,"ition":550,"Ġle":551,"ect":552,"ks":553,"ri":554,"kin":555,"ĠG":556,"Ġun":557,"Ġimp":558,"Ġad":559,"Ġman":560,"ress":561,"ms":562,"Ġso":563,"Ġres":564,"Ġher":565,"Ġwhat":566,"so":567,"ated":568,"Ġabout":569,"hing":570,"li":571,"vity":572,"Ġwhen":573,"ough":574,"Ġwork":575,"uch":576,"ous":577,"alth":578,"ass":579,"ikigai":580,"20":581,"ace":582,"lp":583,"te":584,"ord":585,"kinaw":586,"ci":587,"ry":588,"we":589,"ĠN":590,"Ġother":591,"Ġhas":592,"Ġthings":593,"ĠIn":594,"sel":595,"age":596,"hat":597,"Ġikigai":598,"ence":599,"Ġfo":600,"Ġflow":601,"Ġexp":602,"his":603,"Ġob":604,"ree":605,"Ġmind":606,"ue":607,"way":608,"ĠY":609,"Ġmy":610,"Ġdis":611,"Ġcont":612,"In":613,"Ġbod":614,"Ġthan":615,"tions":616,"Ġout":617,"ese":618,"Ġhow":619,"Ġhelp":620,"fter":621,"Ġwill":622,"Ġdi":623,"ack":624,"ove":625,"Ġsec":626,"Ġde":627,"Ġonly":628,"Ġalso":629,"Ġkeep":630,"oy":631,"ating":632,"Ġpl":633,"tive":634,"Ġworld":635,"Ġcomp":636,"com":637,"ff":638,"iz":639,"ten":640,"als":641,"Ġyear":642,"Ġhad":643,"Ġfeel":644,"ret":645,"Ġhapp":646,"Ġkn":647,"here":648,"oun":649,"Ġpr":650,"get":651,"tor":652,"Ġbr":653,"Ġmost":654,"Ġlike":655,"ĠHe":656,"evity":657,"ient":658,"ãģ":659,"Ġtw":660,"Ġpat":661,"Ġlive":662,"ĠIt":663,"ĠWe":664,"rapy":665,"Ġbody":666,"We":667,"ob":668,"its":669,"rain":670,"ĠOkinaw":671,"ortant":672,"ful":673,"ran":674,"tain":675,"Ġtas":676,"Ġag":677,"Ġpur":678,"ia":679,"Ġph":680,"Ġinto":681,"other":682,"ercis":683,"pt":684,"wn":685,"ink":686,"Ġover":687,"Ġfac":688,"urn":689,"ame":690,",âĢĿ":691,"duc":692,"ib":693,"Ġ20":694,"Ġshe":695,"Ġcent":696,"Ġmake":697,"ary":698,"Ġhealth":699,"Ġcomm":700,"round":701,"ore":702,"und":703,"Ġif":704,"Ġthese":705,"Ġcl":706,"vel":707,"Ġem":708,"Ġeach":709,"Ġany":710,"Ġsee":711,"aking":712,"Ġshould":713,"cess":714,"Ġway":715,"Ġstud":716,"Ġits":717,"rough":718,"Ġimportant":719,"co":720,"me":721,"rit":722,"Ġthere":723,"ons":724,"Ġno":725,"ĠSt":726,"Ġexercis":727,"hal":728,"ted":729,"Ġsti":730,"Ġper":731,"Ġprac":732,"Ġdown":733,"Ġbeen":734,"ĠJapanese":735,"for":736,"ual":737,"Ġage":738,"Ġafter":739,"Ġfind":740,"Ġbet":741,"til":742,"ase":743,"Ġnat":744,"Ġdoing":745,"Ġmove":746,"able":747,"are":748,"aus":749,"cord":750,"pose":751,"ww":752,"ĠU":753,"Ġsay":754,"Ġhim":755,"Ġthough":756,"Ġdon":757,"omet":758,"owing":759,"Ġwere":760,"ations":761,"ocus":762,"Ġjust":763,"Ġmany":764,"self":765,"Ġyears":766,"omething":767,"ef":768,"pl":769,"ward":770,"Ġam":771,"Ġold":772,"Ġwould":773,"Ġwhere":774,"Ġsm":775,"aning":776,"Ġthing":777,"Ġthose":778,"rad":779,"ĠOkinawa":780,"ood":781,"ple":782,"ys":783,"Ġqu":784,"Ġsome":785,"ish":786,"anc":787,"tiv":788,"tern":789,"ult":790,"ĠThey":791,"rank":792,"00":793,"jec":794,"ub":795,"ates":796,"ond":797,"ities":798,"enti":799,"Ġback":800,"ork":801,"Ġeven":802,"Ġrest":803,"ular":804,"Ġneed":805,"ild":806,"ience":807,"joy":808,"Ġfocus":809,"ors":810,"Ġpass":811,"alk":812,"Ġthrough":813,"ents":814,"thing":815,"akes":816,"Ġuntil":817,"Ġadd":818,"Ġpatient":819,"of":820,"ps":821,"iness":822,"Ġbec":823,"Ġpre":824,"Ġlook":825,"ari":826,"tice":827,"lear":828,"ical":829,"Ġwhile":830,"Ġstress":831,"Ġcons":832,"ments":833,"Ġknow":834,"Ġpurpose":835,"rankl":836,"ĠV":837,"orn":838,"ower":839,"Ġrel":840,"irst":841,"Ġseem":842,"ility":843,"erson":844,"Ġfew":845,"Ġstill":846,"cording":847,"cre":848,"per":849,"ound":850,"ists":851,"ens":852,"Ġbook":853,"Ġbeing":854,"ĠSh":855,"Ġfrie":856,"Ġart":857,"Ġbring":858,"Ġ201":859,"It":860,"ared":861,"ber":862,"day":863,"gim":864,"ial":865,"rie":866,"uk":867,"Ġsomething":868,"eng":869,"Ġbest":870,"Ġmuch":871,"iew":872,"Ġlongevity":873,"Ġenjoy":874,"Ġfoll":875,"Ġcontro":876,"gimi":877,"end":878,"Ġ.":879,"hes":880,"ater":881,"ont":882,"orit":883,"ang":884,"ance":885,"Ġpres":886,"Ġperson":887,"Ġend":888,"chie":889,"rag":890,"Ġstate":891,"Ġwithout":892,"Ġnew":893,"olog":894,"ĠFrankl":895,"ercent":896,"Ġ19":897,"cl":898,"hi":899,"ice":900,"row":901,"sp":902,"tle":903,"Ġtr":904,"Ġapp":905,"Ġsuch":906,"ited":907,"Ġfirst":908,"Ġdr":909,"Ġeat":910,"ety":911,"ign":912,"othe":913,"Ġdoes":914,"Ġnever":915,"Ġgood":916,"Ġmeaning":917,"Ġobjec":918,"Ġsecret":919,"ĠUn":920,"io":921,"lic":922,"oin":923,"ull":924,"wh":925,"Ġsu":926,"ather":927,"ative":928,"Ġclear":929,"Ġpar":930,"Ġpos":931,"Ġmight":932,"Ġthree":933,"Ġdif":934,"arch":935,"vers":936,"Ġhands":937,"Ġstay":938,"Ġask":939,"ste":940,"Ġemo":941,"orita":942,"ness":943,"xt":944,"ĠK":945,"ones":946,"ism":947,"Ġoff":948,"Ġmed":949,"feren":950,"ĠThis":951,"ways":952,"Ġtasks":953,"ause":954,"Ġfriends":955,"otherapy":956,"ax":957,"ave":958,"be":959,"ble":960,"der":961,"most":962,"ych":963,"Ġro":964,"Ġtake":965,"Ġwom":966,"ittle":967,"Ġfin":968,"Ġbu":969,"Ġbus":970,"Ġgreat":971,"Ġread":972,"ĠIf":973,"Ġstr":974,"ail":975,"ample":976,"ĠAs":977,"Ġprocess":978,"Ġtea":979,"selves":980,"hale":981,"Ġcontrol":982,"gy":983,"man":984,"pro":985,"Ġra":986,"Ġachie":987,"Ġown":988,"ite":989,"ener":990,"ense":991,"enef":992,"Ġmom":993,"Ġdes":994,"tif":995,"Ġear":996,"Ġass":997,"ade":998,"Ġgoing":999,"Ġvia":1000,"ogotherapy":1001,"Ġpractice":1002,"Ġsmall":1003,"//":1004,"://":1005,"ces":1006,"old":1007,"tt":1008,"ty":1009,"ures":1010,"ĠZ":1011,"Ġve":1012,"Ġim":1013,"Ġaround":1014,"itu":1015,"enari":1016,"Ġcould":1017,"Ġpart":1018,"tim":1019,"etrie":1020,"Ġrem":1021,"Ġwell":1022,"Ġlives":1023,"aily":1024,"ĠAn":1025,"ĠOgimi":1026,"ĠLong":1027,"Ġdays":1028,"Ġspir":1029,"Ġlevel":1030,"Ġresp":1031,"ween":1032,"Ġexper":1033,"Ġamong":1034,"stead":1035,"Ġemotions":1036,"etrieved":1037,").":1038,"11":1039,"One":1040,"What":1041,"cent":1042,"ever":1043,"fore":1044,"ire":1045,"ily":1046,"ng":1047,"sych":1048,"view":1049,"Ġvery":1050,"Ġide":1051,"Ġturn":1052,"inut":1053,"hed":1054,"Ġsa":1055,"Ġsimp":1056,"esp":1057,"Ġtown":1058,"Ġce":1059,"Ġcal":1060,"Ġmod":1061,"Ġlittle":1062,"Ġgi":1063,"Ġgrou":1064,"Ġreg":1065,"cept":1066,"that":1067,"Ġorder":1068,"apter":1069,"Ġexample":1070,"ĠWhen":1071,"Ġalways":1072,"Ġshow":1073,"oga":1074,"Ġarms":1075,"Ġtwo":1076,"Ġtask":1077,"Ġphys":1078,"Ġcommun":1079,"Ġexercise":1080,"enarians":1081,"ek":1082,"ex":1083,"go":1084,"iv":1085,"med":1086,"rom":1087,"Ġaway":1088,"Ġwant":1089,"Ġwrit":1090,"Ġser":1091,"Ġsame":1092,"ertain":1093,"Ġtoget":1094,"Ġbenef":1095,"ants":1096,"Ġpercent":1097,"Ġhigh":1098,"chn":1099,"ental":1100,"Ġgre":1101,"Ġhand":1102,"ick":1103,"terview":1104,"Ġword":1105,"ĠTh":1106,"Ġright":1107,"earn":1108,"udd":1109,"ĠYou":1110,"Ġbetter":1111,"Ġnature":1112,"ology":1113,"Ġmoment":1114,"Ġveget":1115,"Ġtogether":1116,"10":1117,"ccording":1118,"hy":1119,"lue":1120,"side":1121,"Ġaut":1122,"ines":1123,"Ġset":1124,"Ġsense":1125,"Ġfam":1126,"Ġfive":1127,"Ġbas":1128,"Ġbreat":1129,"Ġind":1130,"Ġdid":1131,"Ġdaily":1132,"Ġlet":1133,"leas":1134,"veral":1135,"oth":1136,"Ġliving":1137,"Ġwhy":1138,"Ġform":1139,"Ġnext":1140,"ĠMorita":1141,"ized":1142,"cover":1143,"),":1144,"St":1145,"av":1146,"lain":1147,"xid":1148,"yp":1149,"Ġsy":1150,"Ġsur":1151,"ise":1152,"Ġfree":1153,"Ġfound":1154,"Ġcar":1155,"Ġcreat":1156,"Ġpal":1157,"Ġmaking":1158,"Ġminut":1159,"Ġinv":1160,"Ġhour":1161,"Ġless":1162,"Ġele":1163,"Ġeff":1164,"ural":1165,"Ġreach":1166,"igong":1167,"Ġheart":1168,"ics":1169,"Ġanother":1170,"ters":1171,"ung":1172,"Ġourselves":1173,"Ġconf":1174,"ĠCh":1175,"Ġfood":1176,"Ġhelps":1177,"Ġdiet":1178,"www":1179,"Ġfollowing":1180,"Ġdrink":1181,"Ġobjective":1182,"tifrag":1183,"Ġsaid":1184,"II":1185,"au":1186,"ctor":1187,"ft":1188,"gative":1189,"ject":1190,"kigai":1191,"ner":1192,"with":1193,"Ġ8":1194,"Ġtry":1195,"Ġthen":1196,"Ġtherapy":1197,"Ġsing":1198,"Ġslow":1199,"ergy":1200,"ator":1201,"Ġfull":1202,"Ġbrain":1203,"orld":1204,"Ġpleas":1205,"Ġinstead":1206,"Ġinterview":1207,"Ġhard":1208,"Ġloc":1209,"Ġlearn":1210,"Ġel":1211,"Ġeating":1212,"Ġnow":1213,"Ġgive":1214,"Ġweek":1215,"uture":1216,"unag":1217,"Ġatt":1218,"ĠTo":1219,"ables":1220,"Ġvis":1221,"Ġenergy":1222,"Ġmeans":1223,"ried":1224,"Ġworking":1225,"Ġcomple":1226,"Ġagain":1227,"ible":1228,"Ġcommon":1229,"Ġstudy":1230,"Ġbetween":1231,"tivities":1232,"Ġpresent":1233,"Ġdifferen":1234,"Ġgroup":1235,"This":1236,"When":1237,"fic":1238,"gan":1239,"oxid":1240,"uin":1241,"vo":1242,"work":1243,"yle":1244,"Ġtyp":1245,"ins":1246,"ined":1247,"ince":1248,"ern":1249,"ath":1250,"itation":1251,"Ġface":1252,"Ġtoward":1253,"ange":1254,"Ġmar":1255,"Ġmain":1256,"Ġdist":1257,"Ġlove":1258,"tire":1259,"tioxid":1260,"uring":1261,"rand":1262,"ection":1263,"Ġbefore":1264,"app":1265,"act":1266,"Ġused":1267,"Ġseveral":1268,"Ġchi":1269,"Ġable":1270,"Ġproble":1271,"ĠRetrieved":1272,"Ġkey":1273,"Ġgetting":1274,"ĠNe":1275,"Ġobs":1276,"Ġplay":1277,"Ġfact":1278,"Ġcentur":1279,"undred":1280,"Ġexercises":1281,"form":1282,"radition":1283,"Ġques":1284,"uki":1285,"According":1286,"Okinaw":1287,"ao":1288,"br":1289,"hor":1290,"ip":1291,"ied":1292,"ially":1293,"iqu":1294,"ivers":1295,"long":1296,"land":1297,"was":1298,"you":1299,"your":1300,"Ġ2":1301,"Ġtre":1302,"Ġtak":1303,"Ġtrain":1304,"read":1305,"ering":1306,"Ġfuture":1307,"Ġtoo":1308,"Ġbo":1309,"Ġboth":1310,"Ġche":1311,"Ġpub":1312,"Ġpower":1313,"Ġmade":1314,"Ġmental":1315,"Ġincre":1316,"Ġhar":1317,"Ġhum":1318,"Ġthink":1319,"Ġdec":1320,"Ġlast":1321,"arc":1322,"lec":1323,"leep":1324,"Ġyoga":1325,"Ġyoung":1326,"Ġhead":1327,"Ġhaving":1328,"Ġstart":1329,"idents":1330,"Ġext":1331,"ational":1332,"ĠWhat":1333,"Ġneur":1334,"oci":1335,"alleng":1336,"Ġactive":1337,"Ġplace":1338,"Ġhappiness":1339,"ount":1340,"ountain":1341,"obs":1342,"ildren":1343,"Ġrelax":1344,"Ġasked":1345,"Ġbusy":1346,"Ġspirit":1347,"Ġexperience":1348,"Ġcommunity":1349,"Ġpalms":1350,"Ġminutes":1351,"An":1352,"As":1353,"az":1354,"bit":1355,"mer":1356,"mat":1357,"sh":1358,"xi":1359,"Ġtradition":1360,"Ġaver":1361,"Ġsup":1362,"Ġbl":1363,"Ġcertain":1364,"Ġpost":1365,"Ġpoin":1366,"Ġpsych":1367,"Ġmat":1368,"Ġhtt":1369,"Ġdone":1370,"Ġlose":1371,"Ġlater":1372,"enty":1373,"Ġrep":1374,"Ġrese":1375,"oss":1376,"They":1377,"ote":1378,"oto":1379,"ecially":1380,"Ġconn":1381,"Ġfront":1382,"Ġworry":1383,"Ġuse":1384,"Ġnear":1385,"Ġnegative":1386,"Ġalmost":1387,"ĠHow":1388,"ific":1389,"abi":1390,"ĠBudd":1391,"ude":1392,"Ġlonger":1393,"Ġtimes":1394,"Ġspend":1395,"Ġeverything":1396,"ectanc":1397,"Ġresidents":1398,"Ġsecond":1399,"tention":1400,"Ġhappy":1401,"Ġknown":1402,"velop":1403,"Ġpractic":1404,"Ġnatural":1405,"ential":1406,"Ġseems":1407,"Ġwoman":1408,"centr":1409,"especially":1410,"Ġphysical":1411,"Ġaverage":1412,"ES":1413,"How":1414,"If":1415,"You":1416,"ais":1417,"but":1418,"ced":1419,"cri":1420,"do":1421,"dom":1422,"ix":1423,"ife":1424,"ph":1425,"pr":1426,"ually":1427,"vent":1428,"Ġtaking":1429,"Ġop":1430,"Ġwalk":1431,"Ġsc":1432,"Ġsk":1433,"Ġcour":1434,"any":1435,"Ġoften":1436,"aly":1437,"Ġhundred":1438,"Ġlow":1439,"arting":1440,"ases":1441,"eth":1442,"Ġnum":1443,"Ġreal":1444,"Ġones":1445,"Ġhere":1446,"ects":1447,"Ġstop":1448,"irc":1449,"Ġyourself":1450,"ĠSto":1451,"ession":1452,"aki":1453,"ĠOne":1454,"ilience":1455,"Ġrather":1456,"iku":1457,"Ġproduc":1458,"they":1459,"Ġactivities":1460,"like":1461,"Ġothers":1462,"Ġkeeping":1463,"Ġprin":1464,"Ġprom":1465,"Ġtwenty":1466,"Ġhealthy":1467,"Ġmovement":1468,"Ġmovements":1469,"Ġbecause":1470,"Ġassoci":1471,"Ġidea":1472,"Ġgreen":1473,"Ġvegetables":1474,"tifragile":1475,"void":1476,"ĠNew":1477,"ectancy":1478,"Ch":1479,"Japan":1480,"aving":1481,"by":1482,"flow":1483,"ian":1484,"ious":1485,"lis":1486,"ples":1487,"tr":1488,"Ġ|":1489,"reg":1490,"rets":1491,"Ġwa":1492,"erate":1493,"Ġfl":1494,"Ġmakes":1495,"Ġmorn":1496,"ask":1497,"Ġeas":1498,"cho":1499,"Ġgrow":1500,"Ġgener":1501,"Ġred":1502,"Ġreas":1503,"Ġonce":1504,"raw":1505,"There":1506,"utr":1507,"Ġantioxid":1508,"str":1509,"ĠShe":1510,"ules":1511,"Ġconduc":1512,"ĠWest":1513,"Ġgoes":1514,"olves":1515,"Ġkind":1516,"ĠEvery":1517,"Ġtechn":1518,"Ġadv":1519,"cient":1520,"Ġdisc":1521,"Ġdiscover":1522,"Ġhowever":1523,"Ġdevelop":1524,"ize":1525,"Ġaging":1526,"Ġfactor":1527,"Ġprep":1528,"Ġsug":1529,"Ġbuild":1530,"Ġstrong":1531,"Ġachieve":1532,"ĠLongevity":1533,"Ġlevels":1534,"Ġsimply":1535,"Ġcell":1536,"Ġcalor":1537,"Ġhours":1538,"Ġ80":1539,"Ġlocal":1540,"Ġdifferent":1541,"Ġdistrac":1542,"xiety":1543,"Ġposture":1544,"Ġcourse":1545,"ikuwas":1546,"Ġmorning":1547,"NG":1548,"Sh":1549,"cc":1550,"eace":1551,"ihal":1552,"less":1553,"mon":1554,"oll":1555,"ries":1556,"right":1557,"sion":1558,"ui":1559,"where":1560,"yn":1561,"ÃŃ":1562,"Ġ$":1563,"Ġq":1564,"Ġent":1565,"Ġten":1566,"Ġtai":1567,"into":1568,"rest":1569,"Ġsoc":1570,"Ġsleep":1571,"itive":1572,"isdom":1573,"Ġbir":1574,"Ġcap":1575,"Ġcirc":1576,"Ġpop":1577,"Ġpast":1578,"Ġpeace":1579,"Ġmus":1580,"Ġmay":1581,"Ġmountain":1582,"alue":1583,"Ġinsp":1584,"Ġdep":1585,"Ġlogotherapy":1586,"aru":1587,"ties":1588,"tivity":1589,"Ġeight":1590,"ows":1591,"cha":1592,"Ġref":1593,"oses":1594,"osop":1595,"Ġlif":1596,"Ġlived":1597,"ĠIkigai":1598,"rop":1599,"ape":1600,"aper":1601,"ield":1602,"ĠAl":1603,"Ġcome":1604,"ilosop":1605,"illage":1606,"ĠBe":1607,"ĠBlue":1608,"Ġchapter":1609,"ages":1610,"ustr":1611,"Ġexpectancy":1612,"hism":1613,"Ġdied":1614,"Ġfeelings":1615,"Ġpath":1616,"Ġclos":1617,"Ġpassion":1618,"Ġlooking":1619,"Ġbringing":1620,"Ġ198":1621,"Ġdoesn":1622,"ĠUnited":1623,"ĠUnivers":1624,"Ġmeditation":1625,"Ġachieving":1626,"ĠZones":1627,"ivid":1628,"Ġbenefits":1629,"Ġwords":1630,"Ġauthor":1631,"Ġsingle":1632,"Ġcomplete":1633,"allenges":1634,"Ġprinci":1635,"ihaly":1636,"ĠUniversity":1637,"15":1638,"He":1639,"To":1640,"aut":1641,"con":1642,"can":1643,"eb":1644,"every":1645,"ien":1646,"kn":1647,"lf":1648,"light":1649,"pur":1650,"ring":1651,"su":1652,"Ġ3":1653,"ĠâĢ":1654,"Ġess":1655,"Ġund":1656,"Ġrad":1657,"Ġter":1658,"Ġtalk":1659,"Ġaw":1660,"Ġavoid":1661,"Ġsat":1662,"Ġson":1663,"Ġsit":1664,"Ġsign":1665,"Ġscho":1666,"ingers":1667,"ouse":1668,"itude":1669,"ising":1670,"ision":1671,"istic":1672,"ening":1673,"Ġbre":1674,"Ġbit":1675,"Ġbig":1676,"Ġcur":1677,"Ġcol":1678,"Ġcall":1679,"Ġpain":1680,"ality":1681,"Ġins":1682,"Ġintern":1683,"Ġhome":1684,"Ġhold":1685,"Ġdet":1686,"time":1687,"aster":1688,"ush":1689,"ushi":1690,"Ġgard":1691,"Ġground":1692,"Ġreally":1693,"igin":1694,"icism":1695,"Ġbend":1696,"Ġans":1697,"thday":1698,"stem":1699,"Ġconcept":1700,"Ġsearch":1701,"Ġself":1702,"ĠThat":1703,"akunag":1704,"Ġalong":1705,"Ġcomb":1706,"estyle":1707,"Ġgoal":1708,"ĠJobs":1709,"eps":1710,"Ġrout":1711,"ĠFor":1712,"Ġchange":1713,"ember":1714,"Ġlongest":1715,"ansl":1716,"Ġeveryone":1717,"Ġlead":1718,"Ġleft":1719,"ected":1720,"Ġimper":1721,"life":1722,"ĠYork":1723,"overed":1724,"Ġsecrets":1725,"comp":1726,"Ġphilosop":1727,"Ġcentenarians":1728,"Ġstudies":1729,"Ġaddition":1730,"Ġbecome":1731,"enguin":1732,"Ġfollow":1733,"who":1734,"Ġwomen":1735,"Ġreading":1736,"Ġimm":1737,"ituals":1738,"times":1739,"Ġfamily":1740,"Ġindivid":1741,"Ġquestions":1742,"Okinawa":1743,"ique":1744,"ready":1745,"Ġpublis":1746,"Ġrelaxed":1747,"Ġpoint":1748,"Ġmatter":1749,"Ġresearch":1750,"Ġassociated":1751,"utrition":1752,"Ġconducted":1753,"Ġsocial":1754,"lightly":1755,"Ġunder":1756,"Ġschool":1757,"akunaga":1758,"Ex":1759,"Our":1760,"RA":1761,"Th":1762,"bed":1763,"cer":1764,"de":1765,"ee":1766,"gra":1767,"iet":1768,"ired":1769,"ket":1770,"mihaly":1771,"par":1772,"ric":1773,"sz":1774,"sik":1775,"ton":1776,"uid":1777,"ying":1778,"ĠQ":1779,"Ġtais":1780,"inety":1781,"rec":1782,"Ġtherap":1783,"isf":1784,"Ġfun":1785,"Ġfil":1786,"Ġfour":1787,"Ġfall":1788,"Ġfingers":1789,"Ġcor":1790,"Ġcaus":1791,"Ġcult":1792,"ana":1793,"Ġinf":1794,"Ġinten":1795,"Ġinform":1796,"edic":1797,"Ġdraw":1798,"arac":1799,"ased":1800,"lev":1801,"lebr":1802,"entmihaly":1803,"Ġgot":1804,"Ġisland":1805,"osp":1806,"Ġstren":1807,"ĠSp":1808,"une":1809,"ulation":1810,"Ġattention":1811,"Ġfru":1812,"Ġneigh":1813,"Ġsea":1814,"ĠOn":1815,"Ġmoai":1816,"ups":1817,"Ġrules":1818,"Ġshikuwas":1819,"abui":1820,"ĠFlow":1821,"ume":1822,"Ġchildren":1823,"Ġprof":1824,"Ġaccording":1825,"Ġjob":1826,"ooks":1827,"Ġspec":1828,"Ġeng":1829,"new":1830,"Ġleast":1831,"Ġresilience":1832,"living":1833,"cipl":1834,"Ġexplain":1835,"Ġdise":1836,"Ġdiscipl":1837,"Ġcontin":1838,"Ġcontain":1839,"Ġoutside":1840,"retch":1841,"Ġhappens":1842,"ĠHealth":1843,"Ġ200":1844,"mend":1845,"ĠStates":1846,"Ġthoughts":1847,"Ġoldest":1848,"Ġsomeone":1849,"Ġpassed":1850,"ĠShakunaga":1851,"Ġ199":1852,"Ġpartic":1853,"Ġdiffic":1854,"Ġstaying":1855,"Ġbusiness":1856,"Ġearly":1857,"ĠZen":1858,"Ġrespons":1859,"Ġbasic":1860,"Ġsystem":1861,"Ġinvolves":1862,"Ġelements":1863,"ĠChin":1864,"Ġelse":1865,"Ġagainst":1866,"Ġproblem":1867,"Ġcentury":1868,"Ġhuman":1869,"Ġblood":1870,"ĠBuddhism":1871,"Ġnumber":1872,"Chapter":1873,"Japanese":1874,"Ġprepared":1875,"ÃŃa":1876,"Ġqigong":1877,"Ġbirthday":1878,"Ġeighty":1879,"szentmihaly":1880,"sikszentmihaly":1881,"Ġtaiso":1882,"Ġneighb":1883,"sikszentmihalyi":1884,"But":1885,"HE":1886,"Im":1887,"aur":1888,"bu":1889,"bbit":1890,"cy":1891,"cles":1892,"from":1893,"hib":1894,"have":1895,"htt":1896,"iy":1897,"ier":1898,"ires":1899,"iving":1900,"led":1901,"lie":1902,"nment":1903,"ption":1904,"people":1905,"turn":1906,"yo":1907,"yond":1908,"yright":1909,"Ã©":1910,"Ġtreat":1911,"int":1912,"ining":1913,"hether":1914,"reate":1915,"Ġwisdom":1916,"Ġsn":1917,"Ġsci":1918,"Ġsub":1919,"Ġsince":1920,"erving":1921,"itask":1922,"Ġfar":1923,"orm":1924,"Ġco":1925,"Ġcat":1926,"Ġcase":1927,"Ġcare":1928,"Ġcount":1929,"Ġpo":1930,"Ġpor":1931,"Ġput":1932,"Ġpred":1933,"Ġpaper":1934,"Ġmis":1935,"Ġmet":1936,"Ġint":1937,"Ġthir":1938,"Ġdri":1939,"Ġduring":1940,"Ġlar":1941,"Ġlist":1942,"tives":1943,"Ġey":1944,"omat":1945,"entary":1946,"Ġnight":1947,"Ġnutrition":1948,"Ġninety":1949,"Ġgl":1950,"Ġreac":1951,"Ġrequ":1952,"Ġretire":1953,"raight":1954,"vernment":1955,"imin":1956,"Ġhab":1957,"ions":1958,"ective":1959,"ute":1960,"Ġforce":1961,"Ġstand":1962,"Ġbeh":1963,"ided":1964,"Ġanim":1965,"Ġanxiety":1966,"stand":1967,"Ġorgan":1968,"opyright":1969,"ĠThere":1970,"Ġexce":1971,"Ġexhale":1972,"ĠWh":1973,"ĠWill":1974,"Ġusing":1975,"amage":1976,"ilities":1977,"Ġrich":1978,"Ġrituals":1979,"Ġshown":1980,"ock":1981,"ĠFe":1982,"umi":1983,"Ġchang":1984,"ĠLogotherapy":1985,"iktor":1986,"Ġvalue":1987,"Ġjoin":1988,"oney":1989,"ĠEd":1990,"ĠEx":1991,"Ġtell":1992,"raph":1993,"idered":1994,"ĠPro":1995,"ĠDo":1996,"ĠGet":1997,"tend":1998,"Ġbodies":1999,"Ġdeep":2000,"Ġdeath":2001,"Ġplates":2002,"Ġfeeling":2003,"ounced":2004,"ãģĦ":2005,"Ġstudents":2006,"cox":2007,"Ġstim":2008,"Ġfinding":2009,"Ġolder":2010,"ultitask":2011,"Ġrestaur":2012,"Ġfocused":2013,"ĠViktor":2014,"ĠShinto":2015,"clud":2016,"rows":2017,"which":2018,"Ġposs":2019,"Ġposition":2020,"Ġoffer":2021,"being":2022,"Ġgreater":2023,"Ġrabbit":2024,"Ġcalm":2025,"Ġfamous":2026,"Ġbreath":2027,"Ġdidn":2028,"Ġfoods":2029,"augh":2030,"Ġbored":2031,"Ġhttps":2032,"Ġnearly":2033,"Ġskill":2034,"alyz":2035,"Ġgrowth":2036,"Ġantioxidant":2037,"Ġbuilding":2038,"Ġlifestyle":2039,"Ġcompletely":2040,"Ġprinciples":2041,"ĠâĢĺ":2042,"Ġsatisf":2043,"Ġindividual":2044,"Ġinformation":2045,"Ġstreng":2046,"Ġshikuwasa":2047,"Ġengine":2048,"12":2049,"14":2050,"?âĢĿ":2051,"After":2052,"Con":2053,"For":2054,"ING":2055,"Morita":2056,"Many":2057,"On":2058,"Ogimi":2059,"aim":2060,"air":2061,"bo":2062,"baru":2063,"cle":2064,"come":2065,"fort":2066,"fect":2067,"food":2068,"gg":2069,"great":2070,"happ":2071,"lish":2072,"mine":2073,"move":2074,"mpt":2075,"ning":2076,"nine":2077,"pat":2078,"por":2079,"pos":2080,"part":2081,"ron":2082,"sing":2083,"sur":2084,"sabi":2085,"ues":2086,"will":2087,"what":2088,"year":2089,"Ġed":2090,"Ġtra":2091,"Ġtem":2092,"Ġtakes":2093,"Ġopp":2094,"Ġocc":2095,"real":2096,"reme":2097,"Ġwin":2098,"Ġwat":2099,"Ġwater":2100,"Ġsou":2101,"Ġsal":2102,"Ġsol":2103,"Ġsitu":2104,"Ġsushi":2105,"ature":2106,"onin":2107,"only":2108,"ouch":2109,"itz":2110,"ital":2111,"enn":2112,"Ġfel":2113,"Ġtool":2114,"Ġbal":2115,"Ġbad":2116,"Ġborn":2117,"Ġcit":2118,"another":2119,"anbaru":2120,"Ġmon":2121,"Ġmel":2122,"alle":2123,"Ġinhale":2124,"Ġdie":2125,"arm":2126,"aring":2127,"arth":2128,"ash":2129,"asting":2130,"asters":2131,"oms":2132,"Ġyouth":2133,"lling":2134,"Ġgrand":2135,"Ġrec":2136,"Ġrecom":2137,"Ġreduc":2138,"Ġreturn":2139,"osis":2140,"ima":2141,"aya":2142,"cel":2143,"celain":2144,"ict":2145,"ices":2146,"ically":2147,"ecause":2148,"Ġforms":2149,"Ġstarting":2150,"ida":2151,"idd":2152,"Ġancient":2153,"though":2154,"stant":2155,"ĠSan":2156,"ods":2157,"ultiv":2158,"Ġconcentr":2159,"ĠWorld":2160,"Ġdoctor":2161,"Ġworth":2162,"tional":2163,"Ġseven":2164,"ĠTe":2165,"ĠTurn":2166,"ĠOr":2167,"ĠOur":2168,"Ġmoving":2169,"Ġalready":2170,"Ġcomes":2171,"Ġgoals":2172,"Ġgovernment":2173,"ĠFrom":2174,"ĠCl":2175,"ĠCon":2176,"ĠCal":2177,"Ġchallenges":2178,"Ġabove":2179,"ĠLife":2180,"Ġwhole":2181,"Ġprov":2182,"there":2183,"ource":2184,"ourne":2185,"Ġact":2186,"Ġactivity":2187,"Ġjung":2188,"Ġjourne":2189,"Ġenc":2190,"renity":2191,"aging":2192,"Ġtend":2193,"Ġteac":2194,"Ġ100":2195,"ĠPeople":2196,"ĠDis":2197,"Ġleg":2198,"ribut":2199,"ression":2200,"Ġsoon":2201,"Ġresult":2202,"asses":2203,"cious":2204,"Ġmindful":2205,"ffer":2206,"ization":2207,"Ġhappen":2208,"Ġpron":2209,"ĠOkinawans":2210,"Ġfacing":2211,"Ġclose":2212,"Ġsays":2213,"Ġsaying":2214,"Ġquick":2215,"Ġpatients":2216,"Ġconsidered":2217,"Ġfewer":2218,"Ġartist":2219,"Ġ2016":2220,"ercentenarians":2221,"Ġdrive":2222,"Ġclearly":2223,"Ġpositive":2224,"Ġfinally":2225,"Ġdesire":2226,"Ġcelebr":2227,"Ġgiving":2228,"Ġgives":2229,"Ġgiven":2230,"Ġregular":2231,"Ġvegetable":2232,"Ġcarry":2233,"without":2234,"Ġpleasure":2235,"Ġpleasures":2236,"Ġinterviews":2237,"unagaya":2238,"Ġvisit":2239,"Ġmaintain":2240,"Ġcenturies":2241,"Ġtrees":2242,"Ġtaken":2243,"Ġtakumi":2244,"Ġtraining":2245,"Ġincrease":2246,"Ġextreme":2247,"Ġspiritual":2248,"azaki":2249,"Ġtraditional":2250,"Ġpsychology":2251,"ificant":2252,"ĠStoicism":2253,"Ġreason":2254,"Ġtechnology":2255,"Ġdiscovered":2256,"Ġstronger":2257,"rests":2258,"Ġmountains":2259,"Ġradio":2260,"Ġbreak":2261,"Ġpainting":2262,"Ġroutine":2263,"gram":2264,"Ġtherapist":2265,"Ġintense":2266,"edicated":2267,"Ġspecial":2268,"Ġdisease":2269,"Ġdifficult":2270,"iyazaki":2271,"Ġtreatment":2272,"Ġhabits":2273,"Ġstimul":2274,"Ġjourney":2275,"/.":2276,"50":2277,"70":2278,"AR":2279,"Be":2280,"EN":2281,"ER":2282,"Every":2283,"Is":2284,"Ikigai":2285,"Long":2286,"OR":2287,"Res":2288,"Retrieved":2289,"Tai":2290,"Wh":2291,"aren":2292,"after":2293,"bid":2294,"bod":2295,"bers":2296,"cher":2297,"cape":2298,"ds":2299,"eat":2300,"five":2301,"full":2302,"hol":2303,"hors":2304,"ior":2305,"ives":2306,"ived":2307,"ji":2308,"ked":2309,"no":2310,"not":2311,"oan":2312,"pin":2313,"rt":2314,"ris":2315,"set":2316,"ster":2317,"something":2318,"tly":2319,"uz":2320,"uce":2321,"uice":2322,"walk":2323,"world":2324,"yoto":2325,"á¹":2326,"çĶ":2327,"Ġill":2328,"Ġich":2329,"Ġespecially":2330,"Ġaff":2331,"inary":2332,"hest":2333,"rel":2334,"Ġwon":2335,"Ġwent":2336,"Ġwood":2337,"Ġsum":2338,"Ġside":2339,"Ġslightly":2340,"ert":2341,"eration":2342,"ata":2343,"atonin":2344,"estern":2345,"ither":2346,"Ġfle":2347,"Ġfill":2348,"Ġfear":2349,"Ġfish":2350,"Ġfrag":2351,"Ġtoday":2352,"ory":2353,"oring":2354,"orts":2355,"ories":2356,"Ġcard":2357,"Ġcreate":2358,"Ġpay":2359,"Ġpress":2360,"Ġmabui":2361,"Ġmoney":2362,"aleb":2363,"Ġinc":2364,"Ġhig":2365,"Ġhous":2366,"Ġdest":2367,"Ġdamage":2368,"Ġdedicated":2369,"Ġlim":2370,"Ġlot":2371,"Ġlight":2372,"Ġlost":2373,"tial":2374,"asmine":2375,"ley":2376,"Ġep":2377,"Ġev":2378,"chi":2379,"children":2380,"llo":2381,"ently":2382,"eting":2383,"ray":2384,"osing":2385,"verse":2386,"Ġhear":2387,"Ġforget":2388,"ĠIs":2389,"ĠIts":2390,"ĠIbid":2391,"Ġsteps":2392,"Ġstretch":2393,"iro":2394,"Ġbeg":2395,"Ġbeings":2396,"Ġbelie":2397,"Ġantifragile":2398,"this":2399,"things":2400,"ĠSe":2401,"Ġorigin":2402,"unch":2403,"ope":2404,"ĠThen":2405,"ĠWestern":2406,"ami":2407,"Ġsepar":2408,"ĠAb":2409,"ĠAt":2410,"ĠTok":2411,"ĠTao":2412,"akoto":2413,"Ġalco":2414,"Ġcoming":2415,"ands":2416,"ifies":2417,"Ġrun":2418,"uman":2419,"Ġcancer":2420,"ĠBre":2421,"ĠCsikszentmihalyi":2422,"Ġnothing":2423,"earch":2424,"Ġcharac":2425,"Ġabs":2426,"ĠLive":2427,"udio":2428,"important":2429,"Ġvari":2430,"Ġview":2431,"Ġvillage":2432,"ogn":2433,"Ġfeet":2434,"istential":2435,"Ġacc":2436,"Ġaccept":2437,"Ġjuice":2438,"Ġkill":2439,"Ġarrows":2440,"achie":2441,"ĠEng":2442,"ĠEarth":2443,"Ġspe":2444,"Ġenough":2445,"uct":2446,"uction":2447,"ĠPenguin":2448,"ĠDe":2449,"ĠGuin":2450,"ĠGhib":2451,"lier":2452,"ĠNass":2453,"Ġexpl":2454,"ĠYanbaru":2455,"Ġmyself":2456,"Ġmyster":2457,"Ġthanks":2458,"Ġplan":2459,"retty":2460,"Ġprot":2461,"ãģ®":2462,"Ġago":2463,"ibility":2464,"Ġcenter":2465,"Ġclaim":2466,"Ġthought":2467,"ploy":2468,"radley":2469,"Ġsometimes":2470,"ances":2471,"anced":2472,"000":2473,"entific":2474,"Ġbecom":2475,"Ġpersonal":2476,"hip":2477,"Ġapply":2478,"Ġobjectives":2479,"lications":2480,"Ġfinal":2481,"Ġstruct":2482,"produc":2483,"Ġdescri":2484,"Ġimag":2485,"Ġremind":2486,"Ġremain":2487,"Ġremember":2488,"Ġideas":2489,"Ġsimple":2490,"Ġmodel":2491,"Ġmodern":2492,"Ġshowed":2493,"Ġwrite":2494,"Ġbasis":2495,"Ġbreathing":2496,"Ġindic":2497,"Ġsurround":2498,"Ġelev":2499,"Ġconflic":2500,"Ġelimin":2501,"Ġattitude":2502,"Ġmarket":2503,"Ġmartial":2504,"Ġproblems":2505,"Ġobsess":2506,"Ġquestion":2507,"Ġthinking":2508,"Ġextra":2509,"Ġhttp":2510,"Ġopen":2511,"Ġpromote":2512,"Ġeasy":2513,"Ġfactors":2514,"Ġpopular":2515,"ields":2516,"ustration":2517,"Ġcloser":2518,"auty":2519,"everything":2520,"Ġterm":2521,"Ġdetail":2522,"Ġgarden":2523,"Ġphilosophy":2524,"riction":2525,"ĠQigong":2526,"Ġcauses":2527,"Ġculture":2528,"Ġdrawing":2529,"levision":2530,"Ġprofession":2531,"ĠChinese":2532,"ledge":2533,"Ġscientific":2534,"Ġporcelain":2535,"Ġthirty":2536,"ultitasking":2537,"Ġengineers":2538,"Ġfelt":2539,"Ġreduces":2540,"Ġjungle":2541,"Ġpronounced":2542,"Ġquickly":2543,"ĠTokyo":2544,"Ġalcohol":2545,"ĠEnglish":2546,"ĠGuinness":2547,"ĠGhibli":2548,"!âĢĻ":2549,"13":2550,"16":2551,"37":2552,"90":2553,"97":2554,"CC":2555,"ET":2556,"LO":2557,"Med":2558,"Pl":2559,"ah":2560,"bs":2561,"back":2562,"ck":2563,"cest":2564,"cons":2565,"dis":2566,"dif":2567,"down":2568,"dition":2569,"een":2570,"eff":2571,"eaning":2572,"fac":2573,"fast":2574,"ger":2575,"ging":2576,"gener":2577,"hab":2578,"hist":2579,"ios":2580,"ivity":2581,"ml":2582,"mun":2583,"might":2584,"mail":2585,"over":2586,"oose":2587,"off":2588,"power":2589,"rot":2590,"sm":2591,"sity":2592,"sup":2593,"sue":2594,"tw":2595,"then":2596,"tml":2597,"ured":2598,"vas":2599,"yles":2600,"yau":2601,"zone":2602,"ãĤ":2603,"Ġu":2604,"Ġes":2605,"Ġir":2606,"ĠçĶ":2607,"Ġtrou":2608,"inc":2609,"inst":2610,"health":2611,"help":2612,"Ġoper":2613,"rector":2614,"Ġwal":2615,"Ġwind":2616,"Ġwake":2617,"Ġsw":2618,"Ġsim":2619,"Ġsong":2620,"Ġscre":2621,"Ġsession":2622,"erv":2623,"erous":2624,"onse":2625,"oura":2626,"iting":2627,"itual":2628,"itute":2629,"ises":2630,"ene":2631,"enge":2632,"ency":2633,"Ġfail":2634,"Ġbro":2635,"Ġblue":2636,"Ġbunagaya":2637,"org":2638,"Ġcy":2639,"Ġcam":2640,"Ġcup":2641,"Ġcook":2642,"Ġcopyright":2643,"ane":2644,"ann":2645,"anies":2646,"Ġprou":2647,"Ġmic":2648,"Ġmother":2649,"Ġmaster":2650,"alf":2651,"alys":2652,"Ġinit":2653,"Ġinside":2654,"Ġinhab":2655,"Ġhorm":2656,"Ġhalf":2657,"edia":2658,"Ġdel":2659,"Ġdem":2660,"Ġdata":2661,"Ġled":2662,"Ġlack":2663,"ara":2664,"ars":2665,"artic":2666,"till":2667,"tiaging":2668,"asic":2669,"asure":2670,"let":2671,"lease":2672,"Ġego":2673,"Ġyet":2674,"oma":2675,"omo":2676,"oman":2677,"omach":2678,"urther":2679,"ett":2680,"Ġnor":2681,"use":2682,"usion":2683,"ushes":2684,"Ġgr":2685,"Ġguid":2686,"Ġrece":2687,"Ġrecord":2688,"Ġwealth":2689,"Ġhaven":2690,"Ġhachi":2691,"These":2692,"otes":2693,"icon":2694,"icial":2695,"uter":2696,"Ġwhite":2697,"ĠIm":2698,"Ġstage":2699,"Ġstraight":2700,"Ġstomach":2701,"Ġbeyond":2702,"Ġbeauty":2703,"iding":2704,"ides":2705,"ident":2706,"Ġwithin":2707,"Ġitself":2708,"three":2709,"rove":2710,"roduc":2711,"roflow":2712,"stac":2713,"stitute":2714,"ĠSun":2715,"ĠSuz":2716,"aps":2717,"odern":2718,"acity":2719,"acks":2720,"ults":2721,"ulating":2722,"ĠTheir":2723,"ĠThese":2724,"Ġconcre":2725,"Ġconstant":2726,"essor":2727,"ĠWith":2728,"ames":2729,"ĠApp":2730,"ĠAida":2731,"ĠTaleb":2732,"ĠTyau":2733,"ades":2734,"ately":2735,"atever":2736,"Ġalone":2737,"ilar":2738,"ilient":2739,"epp":2740,"ĠMir":2741,"ĠMakoto":2742,"ĠMeaning":2743,"andom":2744,"Ġrise":2745,"ocity":2746,"ocals":2747,"oking":2748,"ĠBut":2749,"ĠBring":2750,"ĠBooks":2751,"Ġallow":2752,"Ġallows":2753,"Ġability":2754,"ĠLess":2755,"embers":2756,"Ġvit":2757,"them":2758,"their":2759,"allenge":2760,"Ġactions":2761,"Ġkne":2762,"ortance":2763,"Ġarts":2764,"Ġenv":2765,"Ġentire":2766,"ĠRe":2767,"ĠRes":2768,"ĠRec":2769,"ĠRandom":2770,"Ġmeant":2771,"artph":2772,"renal":2773,"Ġteam":2774,"Ġ18":2775,"Ġ110":2776,"ĠPress":2777,"astrop":2778,"ustom":2779,"Ġgets":2780,"ĠDan":2781,"itions":2782,"ĠGarc":2783,"Ġunique":2784,"Ġherself":2785,"hington":2786,"ords":2787,"order":2788,"orders":2789,"ordinary":2790,"weet":2791,"wered":2792,"Ġfoot":2793,"Ġforests":2794,"Ġobject":2795,"Ġobstac":2796,"ĠYuki":2797,"Ġhelping":2798,"Ġdiv":2799,"Ġdirector":2800,"Ġplant":2801,"Ġcompanies":2802,"coming":2803,"ffering":2804,"Ġfeels":2805,"Ġknowing":2806,"Ġbrings":2807,"Ġbrush":2808,"Ġlikely":2809,"Ġtwel":2810,"Ġtwice":2811,"Ġages":2812,"Ġphone":2813,"pty":2814,"Ġovercome":2815,"Ġcenters":2816,"Ġemploy":2817,"Ġempty":2818,"Ġanyone":2819,"Ġanything":2820,"Ġseek":2821,"Ġshoulders":2822,"ĠStarting":2823,"Ġhimself":2824,"efore":2825,"plomat":2826,"Ġamount":2827,"ternal":2828,"Ġneeds":2829,"Ġpremat":2830,"Ġconsume":2831,"Ġconscious":2832,"Ġknowledge":2833,"Ġrelations":2834,"ension":2835,"Ġfriend":2836,"Ġartis":2837,"Ġartists":2838,"Ġ2014":2839,"Ġenjoying":2840,"ending":2841,"hips":2842,"Ġtrue":2843,"Ġappear":2844,"lication":2845,"Ġsuffering":2846,"ĠKyoto":2847,"Ġoffers":2848,"Ġrole":2849,"Ġroom":2850,"Ġfinish":2851,"manence":2852,"Ġdesires":2853,"Ġearlier":2854,"oldest":2855,"ĠAntifragile":2856,"ĠLonger":2857,"Ġspirits":2858,"Ġrespond":2859,"Ġresponse":2860,"Ġshows":2861,"gov":2862,"Ġwriting":2863,"Ġserved":2864,"ĠThough":2865,"ĠThink":2866,"Ġbreathe":2867,"Ġsympt":2868,"Ġcreating":2869,"Ġeffect":2870,"Ġeffects":2871,"Ġreaching":2872,"tifragility":2873,"III":2874,"atory":2875,"Ġbrains":2876,"Ġharder":2877,"Ġvisual":2878,"Ġvisited":2879,"Ġtypically":2880,"Ġobserving":2881,"Ġplaying":2882,"Okinawans":2883,"longevity":2884,"Ġpowerful":2885,"Ġhumans":2886,"Ġneurons":2887,"Ġneuroses":2888,"should":2889,"Ġtraditions":2890,"Ġconnection":2891,"ĠBuddhist":2892,"Ġsecondary":2893,"Ġpracticing":2894,"Ġpractices":2895,"doing":2896,"transl":2897,"regulating":2898,"Ġreasons":2899,"Ġsugar":2900,"Ġcells":2901,"Ġcalories":2902,"Ġdistractions":2903,"ynman":2904,"Ġenter":2905,"Ġcapacity":2906,"Ġmuscles":2907,"Ġdepression":2908,"know":2909,"purpose":2910,"Ġessential":2911,"Ġtalking":2912,"Ġaware":2913,"Ġsitting":2914,"Ġsignificant":2915,"Ġinternational":2916,"Ġansw":2917,"Ġanswered":2918,"Ġpublisher":2919,"Ġpublished":2920,"Ġfunc":2921,"Ġfilms":2922,"Ġcorrec":2923,"Ġfruit":2924,"Ġdisciplines":2925,"Ġparticular":2926,"Ġneighbors":2927,"Ġsnack":2928,"Ġcoast":2929,"Ġcountry":2930,"Ġdrives":2931,"Ġeyes":2932,"ĠWillcox":2933,"ĠFeynman":2934,"Ġchanges":2935,"Ġrestaurant":2936,"Ġpossible":2937,"alyzed":2938,"patient":2939,"Ġbalance":2940,"Ġmelatonin":2941,"Ġteaches":2942,"Ġmindfulness":2943,"body":2944,"oanalys":2945,"Ġichi":2946,"Ġhouses":2947,"Ġcharacter":2948,"Ġmysterious":2949,"Ġelevator":2950,"Ġconflicts":2951,"Ġsimilar":2952,"ourage":2953,"Ġproud":2954,"Ġinhabit":2955,"ĠSuzuki":2956,"Ġconcrete":2957,"ĠGarcÃŃa":2958,"Ġobstacles":2959,"Ġpremature":2960,"oanalysis":2961,"!âĢĿ":2962,".,":2963,"06":2964,"07":2965,"100":2966,"23":2967,"55":2968,"58":2969,"75":2970,"AT":2971,"At":2972,"All":2973,"Born":2974,"Based":2975,"Case":2976,"Dis":2977,"Frankl":2978,"GF":2979,"Ge":2980,"Get":2981,"Lower":2982,"Logotherapy":2983,"LES":2984,"ND":2985,"OM":2986,"ON":2987,"So":2988,"See":2989,"TH":2990,"World":2991,"bi":2992,"bl":2993,"cal":2994,"cra":2995,"cum":2996,"cular":2997,"cont":2998,"cbi":2999,"dra":3000,"def":3001,"eep":3002,"ered":3003,"eight":3004,"fu":3005,"fection":3006,"ga":3007,"ges":3008,"gest":3009,"grand":3010,"gency":3011,"how":3012,"hood":3013,"html":3014,"haps":3015,"ih":3016,"ium":3017,"lm":3018,"lu":3019,"look":3020,"last":3021,"love":3022,"lared":3023,"lomo":3024,"mit":3025,"mar":3026,"mom":3027,"mong":3028,"more":3029,"mountain":3030,"ny":3031,"nowing":3032,"nitz":3033,"ncbi":3034,"nih":3035,"nlm":3036,"ores":3037,"pe":3038,"post":3039,"prac":3040,"pass":3041,"rus":3042,"rive":3043,"say":3044,"slow":3045,"slightly":3046,"still":3047,"tu":3048,"tal":3049,"uis":3050,"ule":3051,"uly":3052,"ution":3053,"uge":3054,"uard":3055,"uett":3056,"would":3057,"writ":3058,"xir":3059,"yper":3060,"yuk":3061,"ydra":3062,"znitz":3063,"³n":3064,"¾ãģ":3065,"Â©":3066,"Ã³n":3067,"æĸ":3068,"Ġ6":3069,"ĠX":3070,"Ġvel":3071,"Ġicon":3072,"ĠÂ©":3073,"Ġtouch":3074,"Ġapart":3075,"iny":3076,"iner":3077,"inter":3078,"ination":3079,"inste":3080,"inner":3081,"hel":3082,"hemer":3083,"reet":3084,"ream":3085,"requ":3086,"reci":3087,"Ġwid":3088,"Ġsun":3089,"Ġsuc":3090,"Ġskin":3091,"Ġsits":3092,"Ġsix":3093,"Ġsweet":3094,"ato":3095,"ingway":3096,"ona":3097,"onment":3098,"onstr":3099,"ester":3100,"esity":3101,"estiv":3102,"itch":3103,"itting":3104,"itating":3105,"isol":3106,"ished":3107,"Ġfat":3108,"Ġfif":3109,"Ġfast":3110,"Ġfund":3111,"Ġfaster":3112,"Ġfields":3113,"Ġtold":3114,"Ġtook":3115,"Ġtotal":3116,"Ġbat":3117,"oro":3118,"orhood":3119,"Ġca":3120,"Ġcort":3121,"Ġcoun":3122,"Ġcame":3123,"Ġcause":3124,"Ġcultiv":3125,"anish":3126,"Ġpot":3127,"Ġpri":3128,"Ġpray":3129,"Ġpretty":3130,"âĢĵ":3131,"Ġmen":3132,"Ġmant":3133,"Ġmill":3134,"Ġmist":3135,"aling":3136,"almost":3137,"Ġinte":3138,"Ġhur":3139,"Ġhung":3140,"Ġhouse":3141,"Ġhyper":3142,"Ġthreat":3143,"edentary":3144,"Ġdanc":3145,"Ġdang":3146,"Ġdance":3147,"Ġla":3148,"Ġlo":3149,"Ġlower":3150,"Ġloss":3151,"arge":3152,"arÃŃa":3153,"arcel":3154,"asy":3155,"asing":3156,"asts":3157,"ashington":3158,"leg":3159,"leag":3160,"Ġeli":3161,"challenges":3162,"urally":3163,"enth":3164,"entle":3165,"eted":3166,"etween":3167,"Ġnove":3168,"Ġnob":3169,"Ġname":3170,"uss":3171,"Ġgame":3172,"Ġgather":3173,"Ġgames":3174,"Ġisn":3175,"Ġreve":3176,"Ġreti":3177,"Ġrecl":3178,"Ġreact":3179,"Ġrelease":3180,"Ġwel":3181,"osite":3182,"imes":3183,"cetic":3184,"iges":3185,"Ġhabit":3186,"oted":3187,"ican":3188,"ician":3189,"ecting":3190,"ecret":3191,"utation":3192,"Ġforward":3193,"ĠII":3194,"ĠIGF":3195,"Ġste":3196,"Ġstation":3197,"ironment":3198,"Ġbegan":3199,"ider":3200,"Ġancest":3201,"search":3202,"than":3203,"rol":3204,"style":3205,"ĠSou":3206,"ĠSur":3207,"oday":3208,"aces":3209,"action":3210,"ĠTherapy":3211,"Ġexact":3212,"Ġexistential":3213,"Ġate":3214,"Ġattend":3215,"Ġdoor":3216,"Ġdocum":3217,"Ġworries":3218,"Ġusually":3219,"ama":3220,"Ġseen":3221,"Ġseas":3222,"Ġsevent":3223,"ĠAd":3224,"ĠAnd":3225,"ĠAfter":3226,"ĠAccording":3227,"ĠAmer":3228,"ĠTr":3229,"ĠTai":3230,"ĠTHE":3231,"resent":3232,"ateg":3233,"ategy":3234,"iest":3235,"ĠOf":3236,"ĠOp":3237,"Ġalive":3238,"Ġaltern":3239,"Ġcomfort":3240,"âĢĶâĢĶ":3241,"ilt":3242,"iling":3243,"ĠJiro":3244,"ersed":3245,"epeat":3246,"ĠHer":3247,"ĠHis":3248,"ĠHouse":3249,"ĠHydra":3250,"ĠMan":3251,"ĠMost":3252,"ĠMakes":3253,"ĠMasters":3254,"ĠMiyazaki":3255,"olas":3256,"olester":3257,"ified":3258,"Ġrate":3259,"Ġrice":3260,"Ġritual":3261,"Ġrule":3262,"Ġshall":3263,"Ġshape":3264,"octor":3265,"icholas":3266,"ably":3267,"ability":3268,"ĠFran":3269,"ĠFoll":3270,"umb":3271,"umans":3272,"ĠBr":3273,"ĠCent":3274,"Ġchallenge":3275,"Ġcholester":3276,"ĠLCC":3277,"udy":3278,"emingway":3279,"ograph":3280,"Ġprover":3281,"Ġprogram":3282,"isted":3283,"istles":3284,"ources":3285,"alles":3286,"Ġjoy":3287,"Ġarch":3288,"Ġartic":3289,"ĠEs":3290,"Ġspace":3291,"Ġsports":3292,"ĠRepeat":3293,"Ġmeat":3294,"ago":3295,"agaz":3296,"awa":3297,"Ġthemselves":3298,"ticing":3299,"ĠPh":3300,"ĠPsych":3301,"ĠDr":3302,"ĠDiet":3303,"Ġleave":3304,"ĠGe":3305,"ĠGo":3306,"Ġimportance":3307,"Ġadrenal":3308,"Ġsold":3309,"Ġresilient":3310,"lives":3311,"Ġworked":3312,"ousand":3313,"teve":3314,"techn":3315,"were":3316,"ĠNo":3317,"ĠNicholas":3318,"ĠIntern":3319,"ĠInstitute":3320,"Ġminds":3321,"ĠYang":3322,"Ġcontact":3323,"Incre":3324,"Ġdef":3325,"Ġcompared":3326,"Ġcompany":3327,"Ġcomputer":3328,"common":3329,"tension":3330,"ãģį":3331,"Ġtwenti":3332,"ĠOkinawan":3333,"Ġpurifies":3334,"ercises":3335,"Ġcommit":3336,"unday":3337,"Ġanywhere":3338,"Ġseeks":3339,"Ġways":3340,"Ġperse":3341,"Ġperform":3342,"Ġnaturally":3343,"place":3344,"Ġsmartph":3345,"Ġsmiling":3346,"entif":3347,"Ġrestriction":3348,"Ġfocusing":3349,"Ġfocuses":3350,"Ġpassage":3351,"Ġthroughout":3352,"Ġadded":3353,"Ġconsum":3354,"Ġconsists":3355,"ĠVillage":3356,"Ġrelig":3357,"perts":3358,"Ġbooks":3359,"Ġ2011":3360,"Ġ2015":3361,"Ġcontrolling":3362,"ontana":3363,"Ġpresident":3364,"Ġended":3365,"Ġendless":3366,"clude":3367,"Ġtrans":3368,"Ġtransl":3369,"Ġappreci":3370,"Ġeaten":3371,"Ġmeaningful":3372,"licity":3373,"while":3374,"Ġsuic":3375,"Ġparts":3376,"Ġparalle":3377,"Ġemotional":3378,"ĠKnowing":3379,"Ġmedal":3380,"ferent":3381,"Ġfriendships":3382,"beg":3383,"Ġrob":3384,"Ġbuy":3385,"Ġready":3386,"prov":3387,"Ġraise":3388,"Ġraising":3389,"tific":3390,"Ġearth":3391,"Ġassign":3392,"cesc":3393,"timal":3394,"ĠAnxiety":3395,"Ġexperts":3396,"Ġturned":3397,"espread":3398,"Ġtowns":3399,"Ġmoderate":3400,"Ġmoderation":3401,"Ġcommunities":3402,"exp":3403,"medi":3404,"Ġseries":3405,"Step":3406,"Ġsurf":3407,"Ġcarried":3408,"Ġconfir":3409,"Ġdrinking":3410,"Ġtrying":3411,"Ġinterviewed":3412,"riedman":3413,"working":3414,"Ġtypes":3415,"Ġplays":3416,"ipate":3417,"Ġtremend":3418,"Ġchest":3419,"Ġcheck":3420,"Ġincreasing":3421,"Ġharm":3422,"lect":3423,"lected":3424,"Ġyounger":3425,"Ġheads":3426,"Ġstarted":3427,"Ġsuper":3428,"Ġsupercentenarians":3429,"Ġconnected":3430,"prising":3431,"Ġrealized":3432,"ĠStoics":3433,"Ġwaves":3434,"Ġwaist":3435,"Ġgeneral":3436,"Ġreduce":3437,"Ġantioxidants":3438,"Ġcalorie":3439,"Ġdistracted":3440,"Ġcircle":3441,"Ġpeaceful":3442,"Ġinspir":3443,"chaffer":3444,"ĠBeing":3445,"ustrated":3446,"Ġ1988":3447,"iences":3448,"known":3449,"Ġ30":3450,"Ġcalled":3451,"Ġinternal":3452,"iginally":3453,"Ġimpermanence":3454,"Ġimmune":3455,"Ġunderstand":3456,"ospective":3457,"ospital":3458,"Ġfruits":3459,"ĠOnce":3460,"Ġresponsibility":3461,"Ġneighborhood":3462,"http":3463,"https":3464,"Ã©ctor":3465,"Ġcatastrop":3466,"Ġpoem":3467,"Ġmission":3468,"Ġlarge":3469,"Ġnutritional":3470,"Ġreached":3471,"Ġrequire":3472,"Ġbehind":3473,"Ġexcell":3474,"ĠExhale":3475,"ĠGetting":3476,"ãģĦãģ":3477,"cluded":3478,"aughter":3479,"Ġskills":3480,"Ġstrength":3481,"Ġstrengthen":3482,"board":3483,"happy":3484,"Ġopposite":3485,"Ġwatch":3486,"Ġsituation":3487,"Ġtools":3488,"Ġcitrus":3489,"Ġmonth":3490,"Ġrecogn":3491,"Ġrecommend":3492,"Ġconcentration":3493,"ributed":3494,"Ġcelebrating":3495,"ENT":3496,"fully":3497,"á¹ĥ":3498,"Ġillness":3499,"Ġhighest":3500,"Ġseparate":3501,"Ġvariety":3502,"Ġviewed":3503,"ĠNassim":3504,"Ġeliminate":3505,"Ġobsessive":3506,"Ġextraordinary":3507,"different":3508,"Ġescape":3509,"Ġtrouble":3510,"Ġwalks":3511,"Ġmicroflow":3512,"Ġinitial":3513,"Ġhormones":3514,"Ġguides":3515,"ĠImich":3516,"ĠApplications":3517,"ĠMiralles":3518,"ĠLessons":3519,"Ġknees":3520,"Ġtwelve":3521,"Ġrelationship":3522,"Ġsymptoms":3523,"Ġvisualization":3524,"Ġanswer":3525,"Ġfunction":3526,"Ġinhabitants":3527,"uettner":3528,"yuky":3529,"æĸĲ":3530,"Ġvelocity":3531,"Ġiconic":3532,"interac":3533,"instein":3534,"hemeral":3535,"Ġwidespread":3536,"Ġcortisol":3537,"Ġmistakes":3538,"Ġhypertension":3539,"arcelona":3540,"Ġelixir":3541,"Ġnovel":3542,"Ġancestors":3543,"Ġdocumentary":3544,"Ġseventeen":3545,"ĠAmerican":3546,"Ġcholesterol":3547,"agazine":3548,"ĠInternet":3549,"Ġparallel":3550,"Ġtremendous":3551,"Ġcatastrophe":3552,"17":3553,"18":3554,"22":3555,"30":3556,"67":3557,"77":3558,"98":3559,"AB":3560,"AI":3561,"AN":3562,"Ad":3563,"Al":3564,"And":3565,"Avoid":3566,"Art":3567,"Aging":3568,"Budd":3569,"Because":3570,"Bradley":3571,"CT":3572,"CÃ":3573,"CES":3574,"Csikszentmihalyi":3575,"ED":3576,"Eating":3577,"Flow":3578,"Food":3579,"GAI":3580,"HÃ":3581,"Hel":3582,"Happ":3583,"Having":3584,"Hara":3585,"IRA":3586,"IGAI":3587,"Jobs":3588,"KIGAI":3589,"LC":3590,"LI":3591,"Life":3592,"LLES":3593,"MC":3594,"Miyazaki":3595,"Not":3596,"NCES":3597,"OK":3598,"Or":3599,"Other":3600,"ONG":3601,"Prot":3602,"PMC":3603,"Red":3604,"Rec":3605,"ROM":3606,"ST":3607,"Sp":3608,"She":3609,"San":3610,"Some":3611,"That":3612,"THE":3613,"VI":3614,"Walk":3615,"Why":3616,"Wabi":3617,"Yoga":3618,"aith":3619,"ares":3620,"aves":3621,"bt":3622,"best":3623,"book":3624,"because":3625,"before":3626,"cing":3627,"chen":3628,"call":3629,"ched":3630,"certain":3631,"df":3632,"don":3633,"det":3634,"dec":3635,"dist":3636,"ean":3637,"eated":3638,"eenth":3639,"fr":3640,"fin":3641,"ffe":3642,"fill":3643,"four":3644,"fuc":3645,"ford":3646,"found":3647,"foll":3648,"gress":3649,"gree":3650,"good":3651,"gland":3652,"har":3653,"has":3654,"home":3655,"human":3656,"ike":3657,"iable":3658,"iolog":3659,"just":3660,"jasmine":3661,"lif":3662,"mc":3663,"md":3664,"mm":3665,"mis":3666,"men":3667,"make":3668,"minut":3669,"name":3670,"ov":3671,"ored":3672,"pop":3673,"port":3674,"person":3675,"poses":3676,"penguin":3677,"pmc":3678,"ror":3679,"ral":3680,"rine":3681,"rather":3682,"ross":3683,"rategy":3684,"son":3685,"ses":3686,"sth":3687,"sam":3688,"some":3689,"six":3690,"secret":3691,"tin":3692,"town":3693,"uf":3694,"uel":3695,"uits":3696,"uish":3697,"uties":3698,"ugg":3699,"vive":3700,"wen":3701,"wor":3702,"wed":3703,"ware":3704,"witz":3705,"whel":3706,"xand":3707,"ym":3708,"²æĸĲ":3709,"Ġ4":3710,"Ġ7":3711,"Ġing":3712,"Ġur":3713,"Ġver":3714,"Ġid":3715,"Ġzone":3716,"īCT":3717,"įA":3718,"ĵãģ":3719,"Ġtun":3720,"Ġtable":3721,"Ġtried":3722,"Ġair":3723,"inic":3724,"inten":3725,"inning":3726,"hemat":3727,"rep":3728,"rew":3729,"reed":3730,"retire":3731,"Ġtheory":3732,"Ġwr":3733,"Ġwall":3734,"Ġwine":3735,"Ġwaking":3736,"Ġwave":3737,"Ġwife":3738,"Ġwhether":3739,"Ġsen":3740,"Ġstic":3741,"Ġsudd":3742,"Ġsource":3743,"Ġsides":3744,"Ġsedentary":3745,"erve":3746,"erful":3747,"ergency":3748,"ats":3749,"atic":3750,"ators":3751,"ony":3752,"esn":3753,"escri":3754,"ourag":3755,"ouds":3756,"itor":3757,"itate":3758,"itect":3759,"itchen":3760,"ison":3761,"ised":3762,"ishing":3763,"isao":3764,"enly":3765,"enic":3766,"enec":3767,"Ġfos":3768,"Ġfir":3769,"Ġfight":3770,"Ġfather":3771,"Ġfire":3772,"Ġfav":3773,"Ġfrequ":3774,"Ġfestiv":3775,"Ġfaith":3776,"Ġtor":3777,"Ġtofu":3778,"Ġbed":3779,"Ġbind":3780,"Ġblow":3781,"Ġbrough":3782,"orrow":3783,"orosis":3784,"Ġcr":3785,"Ġcer":3786,"Ġches":3787,"Ġcoin":3788,"Ġcups":3789,"Ġcouch":3790,"Ġcris":3791,"Ġcustom":3792,"anh":3793,"ano":3794,"anci":3795,"Ġpace":3796,"Ġpage":3797,"Ġpull":3798,"Ġpages":3799,"Ġpunch":3800,"Ġmap":3801,"Ġmeth":3802,"Ġmultitasking":3803,"Ġinclude":3804,"Ġhor":3805,"Ġhidd":3806,"Ġhope":3807,"Ġhuge":3808,"Ġdou":3809,"Ġdim":3810,"Ġdoses":3811,"Ġdying":3812,"Ġdinner":3813,"Ġdream":3814,"Ġdiges":3815,"Ġlang":3816,"Ġlung":3817,"arts":3818,"arms":3819,"arao":3820,"vere":3821,"astic":3822,"astern":3823,"lexand":3824,"Ġeld":3825,"Ġequ":3826,"Ġecon":3827,"Ġegg":3828,"omen":3829,"omod":3830,"urt":3831,"ury":3832,"lly":3833,"lled":3834,"etter":3835,"etition":3836,"Ġnine":3837,"Ġnice":3838,"Ġnational":3839,"ushing":3840,"Ġgra":3841,"Ġgave":3842,"Ġgods":3843,"Ġrebu":3844,"raig":3845,"lying":3846,"Ġweak":3847,"Ġweight":3848,"osen":3849,"imum":3850,"imia":3851,"imary":3852,"cep":3853,"cell":3854,"igrap":3855,"Ġheard":3856,"ota":3857,"ots":3858,"Ġlie":3859,"Ġlik":3860,"Ġlies":3861,"ica":3862,"icals":3863,"ections":3864,"uters":3865,"Ġstro":3866,"Ġstores":3867,"Ġstreet":3868,"iratory":3869,"irtu":3870,"Ġbelow":3871,"idal":3872,"idence":3873,"key":3874,"keep":3875,"Ġascetic":3876,"term":3877,"sell":3878,"seem":3879,"several":3880,"through":3881,"stress":3882,"stances":3883,"ĠSm":3884,"ĠSome":3885,"ĠSearch":3886,"ĠSchaffer":3887,"Ġorang":3888,"apov":3889,"hers":3890,"Ġareas":3891,"uning":3892,"âĢĿ)":3893,"activities":3894,"ula":3895,"ulties":3896,"Ġconstr":3897,"Ġcondition":3898,"Ġconcluded":3899,"Ġfrustrated":3900,"ĠWar":3901,"ĠWrit":3902,"ĠWork":3903,"ĠWater":3904,"ĠWisdom":3905,"ĠWashington":3906,"Ġdoz":3907,"Ġworst":3908,"Ġworks":3909,"among":3910,"amins":3911,"Ġserenity":3912,"ĠAll":3913,"ĠAchie":3914,"ĠAND":3915,"ĠTO":3916,"ĠToy":3917,"ĠTimes":3918,"ĠToday":3919,"adio":3920,"resp":3921,"ĠOwen":3922,"Ġmotiv":3923,"esting":3924,"iles":3925,"ilot":3926,"ept":3927,"illa":3928,"ĠHumans":3929,"ĠHemingway":3930,"ĠHÃ©ctor":3931,"ĠHanh":3932,"elf":3933,"elax":3934,"ĠMy":3935,"ĠMart":3936,"ĠMeth":3937,"ĠMedia":3938,"ĠModern":3939,"ift":3940,"iforn":3941,"upational":3942,"Ġris":3943,"Ġrid":3944,"roup":3945,"Ġshared":3946,"ichard":3947,"abel":3948,"ĠFind":3949,"ĠFuk":3950,"umstances":3951,"too":3952,"ĠBrain":3953,"ĠBuettner":3954,"ĠBarcelona":3955,"ĠCons":3956,"ĠCyn":3957,"ĠCultiv":3958,"ĠCraig":3959,"ĠCapov":3960,"earcher":3961,"Ġchose":3962,"Ġchild":3963,"Ġchoose":3964,"Ġchosen":3965,"Ġabilities":3966,"ĠLearn":3967,"ĠLiving":3968,"ĠLocals":3969,"emo":3970,"empt":3971,"Ġvo":3972,"Ġvol":3973,"Ġvirtu":3974,"ogle":3975,"ogenic":3976,"Ġproject":3977,"Ġprogress":3978,"Ġwasn":3979,"eoporosis":3980,"Ġaction":3981,"Ġaccom":3982,"Ġaccess":3983,"Ġacross":3984,"Ġaccep":3985,"mental":3986,"Ġjasmine":3987,"Ġkami":3988,"Ġkitchen":3989,"Ġkarao":3990,"ortality":3991,"Ġarri":3992,"Ġarrive":3993,"achines":3994,"ĠEn":3995,"ĠEven":3996,"ĠEast":3997,"ĠEinstein":3998,"ĠEastern":3999,"Ġspent":4000,"Ġsprit":4001,"Ġspaces":4002,"ĠRed":4003,"ĠRyuky":4004,"Ġmeet":4005,"Ġmeals":4006,"Ġkept":4007,"Ġkeys":4008,"aged":4009,"agine":4010,"uck":4011,"Ġtelevision":4012,"ideo":4013,"ticated":4014,"iletin":4015,"ĠPl":4016,"ĠPr":4017,"ĠPer":4018,"ĠDon":4019,"ĠDuring":4020,"racted":4021,"negative":4022,"Ġleaving":4023,"ĠGer":4024,"ĠGAR":4025,"Ġunp":4026,"Ġunite":4027,"Ġadap":4028,"Ġadop":4029,"ought":4030,"Ġworkout":4031,"200":4032,"teen":4033,"television":4034,"rying":4035,"well":4036,"ĠNob":4037,"ĠNature":4038,"ĠNah":4039,"ĠInstead":4040,"Ġflows":4041,"Ġobesity":4042,"ĠYin":4043,"Ġoutlook":4044,"Ġdiverse":4045,"Ġdiplomat":4046,"Ġdead":4047,"Ġdegener":4048,"Ġkeeps":4049,"comple":4050,"ffects":4051,"izing":4052,"izes":4053,"Ġhappily":4054,"oung":4055,"Ġprote":4056,"Ġprimary":4057,"tory":4058,"Ġbrushes":4059,"Ġbristles":4060,"ãģª":4061,"ãģĹ":4062,"rains":4063,"Ġpursue":4064,"Ġphot":4065,"Ġoverwhel":4066,"Ġfaced":4067,"ibilities":4068,"Ġcentral":4069,"Ġhealthier":4070,"Ġclass":4071,"Ġemergency":4072,"Ġshoulder":4073,"Ġstudied":4074,"mends":4075,"meaning":4076,"Ġnotice":4077,"Ġnotific":4078,"ĠStretch":4079,"ĠStudio":4080,"ĠStudy":4081,"Ġexercising":4082,"Ġperfect":4083,"Ġdownward":4084,"Ġsmile":4085,"pleasure":4086,"Ġquality":4087,"jects":4088,"onditions":4089,"joying":4090,"psych":4091,"Ġbecame":4092,"Ġprec":4093,"Ġprevent":4094,"Ġconsider":4095,"Ġrelated":4096,"perience":4097,"periences":4098,"ĠShoma":4099,"ĠShlomo":4100,"Ġ2012":4101,"Ġ2017":4102,"berg":4103,"rief":4104,"Ġnewsp":4105,"spir":4106,"Ġtries":4107,"Ġtrick":4108,"Ġappe":4109,"Ġobjects":4110,"iovas":4111,"Ġoffice":4112,"aximum":4113,"Ġroad":4114,"Ġstrateg":4115,"ailable":4116,"process":4117,"Ġmoments":4118,"Ġears":4119,"Ġimmedi":4120,"Ġparty":4121,"timate":4122,"ĠLongest":4123,"111":4124,"Ġsimplicity":4125,"Ġgroups":4126,"Ġregard":4127,"Ġregions":4128,"Ġphysics":4129,"Ġwanted":4130,"Ġwriter":4131,"Ġwrites":4132,"Ġserv":4133,"Ġbenefit":4134,"Ġbenefited":4135,"Ġbeneficial":4136,"ĠThich":4137,"ĠThings":4138,"Ġauthors":4139,"Ġletting":4140,"Strategy":4141,"avior":4142,"Ġcreates":4143,"Ġcreated":4144,"Ġcreativity":4145,"Ġminute":4146,"Ġinvited":4147,"Ġeffort":4148,"ĠChalleng":4149,"ftware":4150,"Ġfully":4151,"Ġlocals":4152,"Ġlearning":4153,"Ġlearned":4154,"Ġtype":4155,"Ġtypical":4156,"tioxidants":4157,"appear":4158,"iques":4159,"Ġboasts":4160,"Ġcheerful":4161,"Ġpublication":4162,"Ġincreases":4163,"Ġharmed":4164,"Ġharmon":4165,"Ġdecided":4166,"Ġdecades":4167,"Ġdeclared":4168,"arcane":4169,"Ġneurosis":4170,"Another":4171,"Ġblock":4172,"Ġcertainly":4173,"Ġrepresent":4174,"Ġrepeated":4175,"ossible":4176,"Ġworrying":4177,"Ġuseful":4178,"ification":4179,"Ġspending":4180,"Ġpracticed":4181,"centration":4182,"pring":4183,"Ġopening":4184,"Ġwalking":4185,"Ġscene":4186,"alyst":4187,"Ġnumerous":4188,"Ġproduced":4189,"Ġproduction":4190,"Ġpromotes":4191,"ianism":4192,"trospective":4193,"Ġwaiting":4194,"Ġfluid":4195,"Ġeasier":4196,"Ġkinds":4197,"Ġtechniques":4198,"Ġadvance":4199,"Ġadvice":4200,"cientists":4201,"Ġdiscuss":4202,"Ġdiscovering":4203,"Ġdeveloped":4204,"Ġsugarcane":4205,"Ġcellular":4206,"Ġcaloric":4207,"Shikuwas":4208,"Ġcirculation":4209,"Ġcircumstances":4210,"Ġpopulation":4211,"Ġinspired":4212,"ĠAlso":4213,"Ġpassionate":4214,"Hello":4215,"ebook":4216,"suing":4217,"Ġawaren":4218,"Ġcurios":4219,"Ġcolleag":4220,"Ġcalligrap":4221,"Ġholding":4222,"Ġdeter":4223,"ushima":4224,"Ġgardens":4225,"Ġsearching":4226,"Ġcombines":4227,"Ġimperfect":4228,"Ġphilosoph":4229,"Ġimmersed":4230,"Ġschools":4231,"RANCES":4232,"Though":4233,"Ġcaused":4234,"Ġcultures":4235,"Ġinflu":4236,"ĠSpanish":4237,"Ġexplains":4238,"Ġexplaining":4239,"Ġcontinue":4240,"Ġcontinually":4241,"Ġcontains":4242,"Ġ1990":4243,"Ġ1998":4244,"Ġresponsible":4245,"ĠChina":4246,"Ġbirthdays":4247,"Impro":4248,"Ġsnow":4249,"Ġsubject":4250,"Ġcareer":4251,"Ġmetal":4252,"Ġintake":4253,"Ġdriving":4254,"Ġlistening":4255,"Ġeye":4256,"Ġglasses":4257,"Ġstanding":4258,"Ġbehavior":4259,"Ġanimals":4260,"ĠWho":4261,"ĠWhile":4262,"Ġchanged":4263,"Ġtells":4264,"Ġrestaurants":4265,"ĠShintoism":4266,"Ġsatisfy":4267,"Ġsatisfaction":4268,"foods":4269,"position":4270,"single":4271,"surround":4272,"Ġoccur":4273,"realized":4274,"Ġsounds":4275,"Ġsituations":4276,"Ġgrandchildren":4277,"Ġrecommends":4278,"thoughts":4279,"ĠSanpin":4280,"Ġconcentrate":4281,"ĠTechn":4282,"ĠCaliforn":4283,"Ġprovince":4284,"Ġactually":4285,"Ġencourag":4286,"Ġlegs":4287,"Ġregularly":4288,"Ġextremely":4289,"Ġbreakfast":4290,"Ġspecialists":4291,"Ġstimuli":4292,"While":4293,"arents":4294,"noon":4295,"Ġaffected":4296,"Ġsummer":4297,"Ġfleeting":4298,"Ġfragile":4299,"Ġcardiovas":4300,"Ġpressure":4301,"Ġdestiny":4302,"Ġlimit":4303,"Ġephemeral":4304,"Ġbelieve":4305,"Ġbelieved":4306,"Ġoriginal":4307,"ĠBreznitz":4308,"ĠBreuning":4309,"achieve":4310,"Ġexplore":4311,"ãģ®ãģ":4312,"Ġbecoming":4313,"Ġbecomes":4314,"Ġstructures":4315,"Ġdescribed":4316,"Ġreminds":4317,"Ġindicate":4318,"978":4319,"LOG":4320,"Medical":4321,"Plume":4322,"munic":4323,"two":4324,"instinc":4325,"helps":4326,"Ġscreen":4327,"Ġfailure":4328,"Ġcycle":4329,"Ġcooking":4330,"Ġdemonstr":4331,"articles":4332,"Ġwealthy":4333,"epping":4334,"Ġvitamins":4335,"Ġenvironment":4336,"ĠRecords":4337,"Ġdivine":4338,"Ġartisan":4339,"Ġresponded":4340,"ĠThinking":4341,"translated":4342,"defined":4343,"grandchildren":4344,"moment":4345,"mountains":4346,"uisine":4347,"Ġ60":4348,"inerals":4349,"Ġsuccess":4350,"Ġbattle":4351,"Ġpotato":4352,"Ġthreats":4353,"Ġnobiletin":4354,"Ġreveal":4355,"Ġretired":4356,"Ġwelcoming":4357,"Ġexactly":4358,"ĠTrue":4359,"ĠFrancesc":4360,"Ġarticle":4361,"ĠGoogle":4362,"Increases":4363,"Ġdefined":4364,"Ġpersevere":4365,"Ġrobust":4366,"Ġsurfing":4367,"Ġconfirmed":4368,"Ġharmful":4369,"Ġexcellent":4370,"Ġmonths":4371,"interacting":4372,"CÃįA":4373,"HÃīCT":4374,"IRALLES":4375,"Protection":4376,"Recent":4377,"Sanpin":4378,"called":4379,"fucianism":4380,"mission":4381,"Ġverified":4382,"Ġidentif":4383,"intensity":4384,"Ġstick":4385,"Ġsuddenly":4386,"eneca":4387,"Ġfoster":4388,"Ġfrequently":4389,"Ġbrought":4390,"Ġchess":4391,"Ġcrisis":4392,"ancial":4393,"Ġpulling":4394,"Ġhidden":4395,"Ġdimension":4396,"Ġdigestive":4397,"Ġlungs":4398,"lexander":4399,"Ġeconom":4400,"omodoro":4401,"imiao":4402,"Ġoranges":4403,"Ġconstruction":4404,"ĠToyama":4405,"ĠFukushima":4406,"ĠCapovilla":4407,"earchers":4408,"Ġvirtuous":4409,"Ġaccompl":4410,"Ġkaraoke":4411,"Ġarrived":4412,"Ġsprites":4413,"ĠGARCÃįA":4414,"ĠNaha":4415,"Ġdegenerative":4416,"Ġoverwhelmed":4417,"Ġnewspaper":4418,"Ġstrategies":4419,"ĠChallenging":4420,"Ġharmony":4421,"Ġdiscussed":4422,"Ġawareness":4423,"Ġcuriosity":4424,"RANCESC":4425,"ĠCalifornia":4426,"Ġencourages":4427,"Ġcardiovascular":4428,"HÃīCTOR":4429,");":4430,".âĢĻ":4431,"/#":4432,"/?":4433,"24":4434,"36":4435,"300":4436,"68":4437,"96":4438,"AD":4439,"Ar":4440,"App":4441,"Among":4442,"Alexander":4443,"BN":4444,"Both":4445,"Before":4446,"Better":4447,"Ce":4448,"Copyright":4449,"Cover":4450,"DC":4451,"Do":4452,"Don":4453,"Dec":4454,"Ep":4455,"Eat":4456,"Even":4457,"FI":4458,"Fi":4459,"Fran":4460,"Focus":4461,"Gi":4462,"Go":4463,"Gre":4464,"Great":4465,"Grains":4466,"Hong":4467,"IN":4468,"IS":4469,"IV":4470,"IX":4471,"Ise":4472,"IES":4473,"ION":4474,"Just":4475,"Jiro":4476,"Keep":4477,"LT":4478,"Little":4479,"Lived":4480,"Locals":4481,"MA":4482,"My":4483,"Ming":4484,"Mic":4485,"Makes":4486,"Mental":4487,"Meth":4488,"Members":4489,"MarÃŃa":4490,"Ne":4491,"Now":4492,"NED":4493,"OU":4494,"Old":4495,"OOK":4496,"Pa":4497,"Per":4498,"Pro":4499,"People":4500,"Prac":4501,"Press":4502,"Psych":4503,"Prom":4504,"Qigong":4505,"RES":4506,"Rituals":4507,"Radio":4508,"Soy":4509,"Sty":4510,"Since":4511,"Steve":4512,"Sunday":4513,"SBN":4514,"Tit":4515,"Toy":4516,"Train":4517,"Turn":4518,"Tradition":4519,"UE":4520,"Un":4521,"VE":4522,"VII":4523,"VIII":4524,"Wu":4525,"Wor":4526,"Will":4527,"Work":4528,"Whether":4529,"Words":4530,"aj":4531,"aved":4532,"affects":4533,"bal":4534,"bus":4535,"bec":4536,"bro":4537,"breat":4538,"ball":4539,"bjec":4540,"benef":4541,"blue":4542,"boss":4543,"books":4544,"basic":4545,"between":4546,"che":4547,"car":4548,"cil":4549,"col":4550,"creat":4551,"care":4552,"clear":4553,"cared":4554,"cern":4555,"circ":4556,"di":4557,"dp":4558,"did":4559,"dies":4560,"dri":4561,"danc":4562,"dire":4563,"draw":4564,"damage":4565,"doctor":4566,"ees":4567,"eal":4568,"eak":4569,"eem":4570,"equ":4571,"ends":4572,"eks":4573,"eating":4574,"eget":4575,"ext":4576,"fra":4577,"fam":4578,"fers":4579,"fting":4580,"free":4581,"first":4582,"frie":4583,"field":4584,"fÃ©":4585,"fasting":4586,"fields":4587,"fusion":4588,"gn":4589,"gr":4590,"ged":4591,"got":4592,"gic":4593,"give":4594,"gard":4595,"grow":4596,"ha":4597,"hur":4598,"hus":4599,"hind":4600,"hok":4601,"host":4602,"hour":4603,"hone":4604,"having":4605,"house":4606,"iat":4607,"iing":4608,"irac":4609,"iors":4610,"ips":4611,"ixt":4612,"iverse":4613,"ju":4614,"joking":4615,"kan":4616,"kawa":4617,"lig":4618,"lot":4619,"lam":4620,"lies":4621,"live":4622,"leng":4623,"ltimate":4624,"mo":4625,"mp":4626,"my":4627,"ming":4628,"mus":4629,"much":4630,"mob":4631,"mens":4632,"mabui":4633,"multitasking":4634,"mbl":4635,"morrow":4636,"na":4637,"nin":4638,"nes":4639,"ned":4640,"nest":4641,"ners":4642,"num":4643,"nect":4644,"nutrition":4645,"nounced":4646,"oh":4647,"oor":4648,"po":4649,"pon":4650,"ped":4651,"pay":4652,"put":4653,"pain":4654,"phen":4655,"pore":4656,"pais":4657,"pict":4658,"pdf":4659,"pushing":4660,"ras":4661,"rup":4662,"rast":4663,"rust":4664,"rons":4665,"ront":4666,"ruits":4667,"rnest":4668,"she":4669,"sou":4670,"sun":4671,"sive":4672,"sud":4673,"simp":4674,"such":4675,"sence":4676,"sub":4677,"sign":4678,"situ":4679,"since":4680,"source":4681,"sitting":4682,"tas":4683,"tra":4684,"top":4685,"tak":4686,"treat":4687,"tles":4688,"tition":4689,"taking":4690,"table":4691,"takes":4692,"task":4693,"ug":4694,"ux":4695,"uig":4696,"uff":4697,"uals":4698,"uary":4699,"uima":4700,"uji":4701,"va":4702,"vant":4703,"vile":4704,"volves":4705,"value":4706,"vesting":4707,"vailable":4708,"wo":4709,"wing":4710,"want":4711,"wik":4712,"whether":4713,"xts":4714,"xibility":4715,"yal":4716,"yoga":4717,"young":4718,"zuk":4719,"zones":4720,"«á¹ĥ":4721,"Åį":4722,"Å«á¹ĥ":4723,"Ġ5":4724,"Ġ:":4725,"Ġ[":4726,"Ġer":4727,"Ġut":4728,"Ġest":4729,"Ġik":4730,"Ġrain":4731,"Ġign":4732,"Ġvers":4733,"Ġ90":4734,"Ġ978":4735,"ĩi":4736,"ıãģ":4737,"Łãģį":4738,"Ġtal":4739,"Ġtout":4740,"Ġtel":4741,"Ġtast":4742,"Ġtri":4743,"Ġtree":4744,"Ġtied":4745,"Ġtension":4746,"Ġtsun":4747,"Ġath":4748,"Ġafra":4749,"Ġavailable":4750,"inom":4751,"inite":4752,"interview":4753,"inside":4754,"heim":4755,"heless":4756,"Ġost":4757,"Ġome":4758,"Ġoxid":4759,"Ġotak":4760,"ref":4761,"rend":4762,"rever":4763,"really":4764,"reases":4765,"research":4766,"Ġwhe":4767,"Ġwand":4768,"Ġwag":4769,"Ġwide":4770,"Ġwick":4771,"Ġwabi":4772,"Ġsent":4773,"Ġsac":4774,"Ġsil":4775,"Ġsqu":4776,"Ġsaw":4777,"Ġsust":4778,"Ġsound":4779,"Ġsens":4780,"Ġsave":4781,"Ġsail":4782,"Ġsample":4783,"Ġsize":4784,"Ġsana":4785,"Ġsano":4786,"Ġscientists":4787,"eras":4788,"erid":4789,"erved":4790,"erries":4791,"att":4792,"atur":4793,"atte":4794,"atible":4795,"attention":4796,"atives":4797,"oned":4798,"onet":4799,"ests":4800,"eside":4801,"esire":4802,"eslie":4803,"esenn":4804,"nding":4805,"ndia":4806,"ndering":4807,"oud":4808,"itiz":4809,"itary":4810,"itors":4811,"iss":4812,"isans":4813,"ishes":4814,"ened":4815,"ences":4816,"Ġfit":4817,"Ġfly":4818,"Ġful":4819,"Ġfant":4820,"Ġfab":4821,"Ġfine":4822,"Ġfair":4823,"Ġfash":4824,"Ġfasting":4825,"Ġfurther":4826,"Ġfuel":4827,"Ġtop":4828,"Ġtox":4829,"Ġtomat":4830,"Ġtomorrow":4831,"Ġbow":4832,"Ġbot":4833,"Ġball":4834,"Ġbone":4835,"Ġbite":4836,"Ġboss":4837,"Ġbands":4838,"Ġbars":4839,"Ġbiolog":4840,"Ġbought":4841,"orie":4842,"orbed":4843,"Ġcity":4844,"Ġcost":4845,"Ġcake":4846,"Ġcrit":4847,"Ġcities":4848,"Ġcof":4849,"Ġcorn":4850,"Ġcovered":4851,"Ġcuisine":4852,"ank":4853,"anti":4854,"anks":4855,"antifragile":4856,"antifragility":4857,"antioxidants":4858,"Ġpen":4859,"Ġpet":4860,"Ġpie":4861,"Ġpad":4862,"Ġpick":4863,"Ġpushes":4864,"Ġpacks":4865,"Ġpitch":4866,"Ġparents":4867,"Ġma":4868,"Ġmer":4869,"Ġmas":4870,"Ġmid":4871,"Ġmess":4872,"Ġmem":4873,"Ġmag":4874,"Ġmund":4875,"Ġmember":4876,"Ġmasters":4877,"Ġmidd":4878,"Ġmembers":4879,"Ġmortality":4880,"Ġminerals":4881,"alter":4882,"allow":4883,"alect":4884,"always":4885,"already":4886,"alutation":4887,"Ġinter":4888,"Ġinner":4889,"Ġinclud":4890,"Ġincomple":4891,"Ġintrospective":4892,"Ġhit":4893,"Ġhun":4894,"Ġhide":4895,"Ġhob":4896,"Ġhired":4897,"Ġhospital":4898,"ĠhÅ«á¹ĥ":4899,"Ġthousand":4900,"eds":4901,"edly":4902,"editation":4903,"Ġdess":4904,"Ġdies":4905,"Ġdue":4906,"Ġdrank":4907,"Ġdates":4908,"Ġdyn":4909,"Ġdrove":4910,"Ġlos":4911,"Ġlay":4912,"Ġland":4913,"Ġline":4914,"Ġlaw":4915,"Ġlines":4916,"Ġlasting":4917,"Ġlosing":4918,"Ġluck":4919,"ark":4920,"arp":4921,"arin":4922,"aris":4923,"arity":4924,"around":4925,"tiz":4926,"tile":4927,"tiful":4928,"asis":4929,"asion":4930,"leen":4931,"leaving":4932,"Ġever":4933,"Ġeternal":4934,"Ġyuima":4935,"omp":4936,"omhouse":4937,"chul":4938,"change":4939,"charge":4940,"chwitz":4941,"urb":4942,"ursing":4943,"entally":4944,"etes":4945,"etus":4946,"etitive":4947,"eteenth":4948,"Ġnam":4949,"Ġnort":4950,"Ġnuc":4951,"Ġnick":4952,"Ġnav":4953,"Ġnursing":4954,"using":4955,"uses":4956,"used":4957,"usai":4958,"usive":4959,"usel":4960,"usual":4961,"usters":4962,"usions":4963,"ussell":4964,"uschwitz":4965,"Ġge":4966,"Ġgen":4967,"Ġgong":4968,"Ġgate":4969,"Ġgone":4970,"Ġgraph":4971,"Ġgently":4972,"Ġgentle":4973,"Ġgym":4974,"Ġghost":4975,"Ġreward":4976,"Ġreleas":4977,"Ġreproduc":4978,"Ġrevolves":4979,"Ġrendering":4980,"lymp":4981,"Ġwearing":4982,"osity":4983,"ime":4984,"imm":4985,"aying":4986,"ceed":4987,"ceiving":4988,"igid":4989,"igue":4990,"igins":4991,"igais":4992,"igured":4993,"Ġhello":4994,"iones":4995,"Ġliver":4996,"Ġlips":4997,"Ġlibr":4998,"icient":4999,"icted":5000,"iciones":5001,"ecific":5002,"ecrets":5003,"ecessor":5004,"uta":5005,"utter":5006,"Ġwhatever":5007,"Ġfort":5008,"Ġforth":5009,"Ġforces":5010,"Ġforgot":5011,"ĠIV":5012,"ĠIsh":5013,"ĠIKIGAI":5014,"ĠISBN":5015,"ĠIndia":5016,"Ġstab":5017,"Ġstated":5018,"Ġstyle":5019,"Ġstages":5020,"Ġstories":5021,"Ġstyles":5022,"Ġstarts":5023,"Ġstepping":5024,"Ġstuff":5025,"irl":5026,"irds":5027,"Ġbeach":5028,"Ġbeast":5029,"Ġbelly":5030,"idem":5031,"idne":5032,"Ġwithstand":5033,"kept":5034,"Ġasp":5035,"Ġasleep":5036,"Ġanalyz":5037,"Ġanger":5038,"Ġantiaging":5039,"Ġanalyzed":5040,"Ġannounced":5041,"teries":5042,"seven":5043,"serenity":5044,"thousand":5045,"star":5046,"stood":5047,"steps":5048,"straight":5049,"ĠSer":5050,"ĠSit":5051,"ĠSup":5052,"ĠShen":5053,"ĠSard":5054,"ĠSushi":5055,"ĠSteve":5056,"ĠSunday":5057,"ĠSwed":5058,"ĠSony":5059,"ĠSpring":5060,"ĠSeneca":5061,"ĠSimiao":5062,"ĠSatur":5063,"ĠSalutation":5064,"ĠSchul":5065,"ĠSecrets":5066,"Ġorange":5067,"Ġorigins":5068,"apers":5069,"apÃ³n":5070,"hern":5071,"herself":5072,"oderate":5073,"Ġaren":5074,"unk":5075,"unity":5076,"unte":5077,"until":5078,"unset":5079,"unately":5080,"few":5081,"access":5082,"according":5083,"ophis":5084,"opilot":5085,"ulin":5086,"ulting":5087,"Ġconvers":5088,"Ġconferen":5089,"Ġconcer":5090,"Ġexcess":5091,"Ġexhal":5092,"Ġexists":5093,"Ġextend":5094,"Ġexternal":5095,"essed":5096,"Ġfrustration":5097,"ĠWi":5098,"ĠWhy":5099,"ĠWabi":5100,"ĠWinst":5101,"aii":5102,"aired":5103,"aikan":5104,"ieties":5105,"Ġneutr":5106,"amic":5107,"amine":5108,"amics":5109,"Ġsex":5110,"Ġseated":5111,"ĠAc":5112,"ĠAr":5113,"ĠAmong":5114,"ĠTop":5115,"add":5116,"addition":5117,"resents":5118,"residing":5119,"aka":5120,"Ġlifetime":5121,"ĠOF":5122,"ĠOver":5123,"ĠOther":5124,"ĠObjec":5125,"ĠOkawa":5126,"ĠOlymp":5127,"Ġalign":5128,"Ġalarm":5129,"Ġalleg":5130,"ained":5131,"estriction":5132,"estyles":5133,"esteem":5134,"âĢĶ.":5135,"Ġgold":5136,"ili":5137,"ilk":5138,"iled":5139,"ĠJust":5140,"ĠJwing":5141,"ĠJapÃ³n":5142,"redient":5143,"redict":5144,"ĠHar":5145,"ĠHay":5146,"ĠHir":5147,"ĠHong":5148,"ĠHaw":5149,"ĠHave":5150,"ĠHapp":5151,"ĠHundred":5152,"ĠHospital":5153,"ighten":5154,"elago":5155,"ellect":5156,"elpais":5157,"ĠMin":5158,"ĠMake":5159,"ĠMuch":5160,"ĠMove":5161,"ĠMore":5162,"ĠMihaly":5163,"ĠMuse":5164,"ĠMarÃŃa":5165,"ĠMontana":5166,"ĠMagazine":5167,"ĠMisao":5168,"ĠMachines":5169,"ĠMaximum":5170,"ĠMIRALLES":5171,"ĠMeditation":5172,"anding":5173,"andmar":5174,"andoned":5175,"andarin":5176,"ola":5177,"olic":5178,"olate":5179,"olved":5180,"olute":5181,"olution":5182,"ify":5183,"ifford":5184,"Ġric":5185,"Ġrange":5186,"Ġrivers":5187,"Ġshap":5188,"Ġshort":5189,"Ġshare":5190,"Ġsharing":5191,"Ġsharp":5192,"occ":5193,"ocolate":5194,"okusai":5195,"abdom":5196,"abetes":5197,"ĠFace":5198,"ĠFound":5199,"ĠFuture":5200,"ĠFix":5201,"ĠFurther":5202,"ĠFontana":5203,"ĠFriedman":5204,"ĠFROM":5205,"ĠFRANCESC":5206,"uma":5207,"uming":5208,"umes":5209,"umis":5210,"umatic":5211,"vings":5212,"Ġcane":5213,"Ġcanvas":5214,"ĠBl":5215,"ĠBy":5216,"ĠBurn":5217,"ĠBert":5218,"ĠBradley":5219,"ĠBasic":5220,"ĠBetween":5221,"ĠBOOK":5222,"ĠCan":5223,"ĠCont":5224,"ĠColl":5225,"ĠCreate":5226,"ĠConditions":5227,"Ġnotes":5228,"Ġallowing":5229,"Ġchat":5230,"Ġchance":5231,"Ġchron":5232,"Ġchocolate":5233,"Ġabandoned":5234,"Ġhistory":5235,"ĠLow":5236,"ĠLos":5237,"ĠLab":5238,"ĠLLC":5239,"ĠLONG":5240,"ĠLuig":5241,"ĠLeslie":5242,"ĠLandmar":5243,"Ġbutton":5244,"Ġbutsud":5245,"Ġvac":5246,"Ġvib":5247,"Ġvary":5248,"Ġvida":5249,"Ġvideo":5250,"ograp":5251,"ogue":5252,"Ġfeat":5253,"Ġfeature":5254,"Ġproven":5255,"Ġproper":5256,"pped":5257,"therapy":5258,"Ġwaste":5259,"Ġwasted":5260,"istry":5261,"ourn":5262,"ourselves":5263,"Ġactiv":5264,"Ġaccel":5265,"Ġjud":5266,"Ġjeal":5267,"Ġknew":5268,"Ġkidne":5269,"ortal":5270,"Ġarg":5271,"Ġarm":5272,"Ġarise":5273,"aching":5274,"ĠEight":5275,"ĠEpict":5276,"ĠErnest":5277,"Ġsport":5278,"Ġspine":5279,"Ġspring":5280,"Ġspee":5281,"Ġspleen":5282,"Ġ(âĢľ":5283,"omeres":5284,"quake":5285,"quick":5286,"ĠRout":5287,"ĠRob":5288,"ĠRelax":5289,"ĠRichard":5290,"ĠRussell":5291,"ĠRestriction":5292,"Ġmeal":5293,"Ġmeeting":5294,"artisans":5295,"rent":5296,"Ġtends":5297,"Ġtext":5298,"rapies":5299,"Ġ120":5300,"Ġ112":5301,"Ġ150":5302,"Ġ116":5303,"tices":5304,"ĠPost":5305,"ĠPrac":5306,"ĠPub":5307,"ĠPower":5308,"ĠPray":5309,"ĠPomodoro":5310,"ĠPunset":5311,"ĠDec":5312,"ĠDef":5313,"ĠDaily":5314,"ĠDoctor":5315,"racked":5316,"Ġupon":5317,"Ġupward":5318,"Ġleaves":5319,"riate":5320,"riving":5321,"rible":5322,"ĠGod":5323,"ĠGain":5324,"ĠGame":5325,"ĠGentle":5326,"ĠGroup":5327,"Ġuna":5328,"Ġunity":5329,"Ġunhur":5330,"Ġuniverse":5331,"Ġunusual":5332,"Ġimposing":5333,"Ġimprove":5334,"Ġimpossible":5335,"Ġadvers":5336,"Ġadults":5337,"Ġadjust":5338,"Ġmanage":5339,"Ġmanaged":5340,"ressing":5341,"ressed":5342,"Ġsoftware":5343,"Ġresults":5344,"Ġresources":5345,"liz":5346,"lied":5347,"lived":5348,"oughly":5349,"ousy":5350,"2010":5351,"2014":5352,"2016":5353,"2017":5354,"tea":5355,"team":5356,"cier":5357,"cience":5358,"weil":5359,"weight":5360,"ĠNor":5361,"ĠNhat":5362,"ĠNever":5363,"ĠInhale":5364,"ĠInclud":5365,"Ġforever":5366,"ĠYour":5367,"ĠYuk":5368,"Ġdish":5369,"Ġdishes":5370,"Ġdisorder":5371,"Ġcontrast":5372,"Instead":5373,"Ġdiary":5374,"Ġdirec":5375,"Ġdialect":5376,"Ġdiabetes":5377,"Ġsection":5378,"Ġdev":5379,"Ġdevo":5380,"Ġdegree":5381,"oya":5382,"Ġcompet":5383,"Ġcompass":5384,"Ġcomplain":5385,"Ġcomparing":5386,"comes":5387,"Ġhadn":5388,"retting":5389,"Ġhappiest":5390,"ounter":5391,"Ġpride":5392,"Ġprison":5393,"Ġbrother":5394,"ĠHere":5395,"ãģĤ":5396,"Ġpatrons":5397,"ĠWeb":5398,"obal":5399,"rained":5400,"rano":5401,"tains":5402,"Ġagility":5403,"Ġagreed":5404,"Ġpurity":5405,"Ġpursuing":5406,"Ġphones":5407,"Ġphoto":5408,"Ġoverall":5409,"Ġovercoming":5410,"Ġfaces":5411,"iberate":5412,"Ġ2000":5413,"Ġcentered":5414,"Ġhealthful":5415,"orea":5416,"undanc":5417,"Ġclim":5418,"Ġclot":5419,"Ġclinic":5420,"Ġclarity":5421,"Ġclusters":5422,"Ġemph":5423,"Ġshouldn":5424,"Ġstudio":5425,"covery":5426,"meate":5427,"ritual":5428,"ritann":5429,"Ġthereby":5430,"ĠStop":5431,"ĠStress":5432,"Ġperi":5433,"Ġperce":5434,"Ġperhaps":5435,"Ġpermeate":5436,"Ġpractition":5437,"force":5438,"forms":5439,"formed":5440,"Ġafternoon":5441,"tility":5442,"auses":5443,"ĠUs":5444,"ĠUltimate":5445,"ĠUrano":5446,"Ġamid":5447,"Ġwhereas":5448,"Ġquest":5449,"Ġquite":5450,"tivated":5451,"0058":5452,"Ġbackward":5453,"Ġresting":5454,"Ġneeded":5455,"Ġneedles":5456,"orsed":5457,"Ġpassing":5458,"Ġadding":5459,"Ġaddicted":5460,"Ġlooked":5461,"arily":5462,"Ġstressed":5463,"Ġknows":5464,"Ġpurposeful":5465,"ĠView":5466,"ĠVien":5467,"Ġseemed":5468,"Ġstillness":5469,"ĠShrine":5470,"ĠShift":5471,"Ġ2010":5472,"bert":5473,"berries":5474,"Ġenjoyable":5475,"orite":5476,"anga":5477,"Ġpresence":5478,"Ġpreserving":5479,"Ġpreserve":5480,"Ġendorsed":5481,"Ġnews":5482,"ologist":5483,"Ġ1970":5484,"spend":5485,"speak":5486,"specific":5487,"Ġtrig":5488,"Ġtruly":5489,"Ġappro":5490,"Ġappren":5491,"Ġsecretos":5492,"ĠUnify":5493,"whatever":5494,"Ġsuffer":5495,"Ġsuffe":5496,"atively":5497,"Ġpara":5498,"Ġpark":5499,"Ġposes":5500,"ĠKur":5501,"ĠKenn":5502,"ĠKuman":5503,"ĠKeep":5504,"Ġmedic":5505,"Ġmedical":5506,"Ġmedium":5507,"Ġmeditate":5508,"ferences":5509,"been":5510,"deriv":5511,"Ġrooted":5512,"Ġfinished":5513,"Ġfinancial":5514,"Ġbuilt":5515,"Ġgreatest":5516,"Ġreader":5517,"Ġprocessing":5518,"Ġprocesses":5519,"Ġprocessed":5520,"many":5521,"manent":5522,"project":5523,"energy":5524,"Ġearned":5525,"Ġasser":5526,"Ġsmaller":5527,"itually":5528,"Ġcouldn":5529,"timistic":5530,"ĠAntiaging":5531,"Ġrespiratory":5532,"Ġexperien":5533,"114":5534,"centenarians":5535,"century":5536,"everal":5537,"forearms":5538,"Ġturns":5539,"Ġturning":5540,"Ġregion":5541,"Ġregener":5542,"Ġphysic":5543,"exist":5544,"exercises":5545,"experiences":5546,"going":5547,"goes":5548,"ival":5549,"ivot":5550,"Ġwritten":5551,"Ġserve":5552,"Ġserious":5553,"Ġhighly":5554,"Ġhighway":5555,"Ġgrew":5556,"Ġgreeted":5557,"ĠThose":5558,"Ġauthen":5559,"Ġautomat":5560,"Ġbased":5561,"Ġindex":5562,"Ġlethar":5563,"Ġformer":5564,"Ġforming":5565,"Ġformal":5566,"Ġformula":5567,"coveries":5568,"Stress":5569,"States":5570,"Studio":5571,"Ġsurprising":5572,"Ġsurvive":5573,"isely":5574,"Ġcreative":5575,"Ġpalace":5576,"Ġinvest":5577,"Ġinvolved":5578,"Ġelement":5579,"Ġeffective":5580,"Ġconfron":5581,"Ġconfront":5582,"autiful":5583,"Ġsinging":5584,"Ġslows":5585,"Ġslowly":5586,"Ġpleasant":5587,"Ġattack":5588,"Ġattributed":5589,"Ġattempt":5590,"Ġcomplex":5591,"Ġcompleting":5592,"Ġcommonly":5593,"Ġpresented":5594,"Ġdifference":5595,"Ġdifferences":5596,"ganization":5597,"ganju":5598,"atha":5599,"Ġlovely":5600,"randomhouse":5601,"ĠNeither":5602,"Ġobsession":5603,"Ġplayers":5604,"ipants":5605,"ipelago":5606,"longer":5607,"Ġ27":5608,"Ġtreasure":5609,"Ġtrained":5610,"Ġchef":5611,"Ġhara":5612,"Ġdecade":5613,"archer":5614,"lection":5615,"lections":5616,"Ġheading":5617,"Ġrelaxing":5618,"matters":5619,"Ġsuppor":5620,"Ġpoints":5621,"Ġpointing":5622,"Ġmatters":5623,"Ġmathemat":5624,"Ġrepetitive":5625,"Ġresearcher":5626,"Ġconnections":5627,"ĠHoward":5628,"Ġseconds":5629,"centrating":5630,"cript":5631,"doors":5632,"pril":5633,"print":5634,"ventists":5635,"ventures":5636,"Ġoptimistic":5637,"Ġscatte":5638,"Ġskiing":5639,"Ġhundreds":5640,"Ġlowers":5641,"Ġrealm":5642,"Ġrealize":5643,"Ġoneself":5644,"Ġstopped":5645,"ĠStoic":5646,"Ġproduces":5647,"Ġproductivity":5648,"flows":5649,"region":5650,"regular":5651,"Ġflav":5652,"Ġfloor":5653,"Ġeasily":5654,"Ġgeneration":5655,"Ġgenerate":5656,"Ġredundanc":5657,"strong":5658,"struc":5659,"ĠEveryone":5660,"ĠEverything":5661,"Ġtechnique":5662,"Ġadvanced":5663,"Ġadvises":5664,"Ġdeveloping":5665,"Ġdevelopment":5666,"Ġfactories":5667,"Ġprepares":5668,"Ġsugges":5669,"Ġsuggest":5670,"Ġbuildings":5671,"Ġdistract":5672,"Shinto":5673,"Ġqi":5674,"rested":5675,"Ġcapital":5676,"Ġpeacefully":5677,"Ġmusic":5678,"Ġmusician":5679,"Ġmaybe":5680,"Ġinspection":5681,"Ġdepends":5682,"Ġrefer":5683,"Ġrefers":5684,"ĠAlbert":5685,"Ġchapters":5686,"Ġclosest":5687,"Ġ1986":5688,"Ġprinciple":5689,"Here":5690,"concentration":5691,"purifies":5692,"pursue":5693,"ĠâĢ¢":5694,"Ġessay":5695,"Ġessence":5696,"Ġradicals":5697,"Ġterms":5698,"Ġterrible":5699,"Ġawake":5700,"Ġavoiding":5701,"Ġbreaking":5702,"Ġbigger":5703,"Ġcurious":5704,"Ġcollected":5705,"Ġcalls":5706,"Ġinsisted":5707,"Ġholds":5708,"Ġbending":5709,"Ġcombining":5710,"Ġroute":5711,"Ġleading":5712,"Ġimperfection":5713,"competed":5714,"Ġfollowed":5715,"Ġimmortal":5716,"Ġindividuals":5717,"Ġunderstood":5718,"Existential":5719,"Exercises":5720,"Experts":5721,"Those":5722,"Thank":5723,"deal":5724,"develop":5725,"grace":5726,"partic":5727,"rication":5728,"ĠQi":5729,"Ġtherapists":5730,"Ġfilm":5731,"Ġfalling":5732,"Ġcorpore":5733,"Ġinfinite":5734,"Ġintensity":5735,"ĠSpir":5736,"ĠOnly":5737,"Ġprofessor":5738,"Ġspecific":5739,"Ġexplained":5740,"Ġdiseases":5741,"Ġdiscipline":5742,"Ġdisciplined":5743,"Ġcontinues":5744,"Ġcontained":5745,"Ġ2001":5746,"Ġ2004":5747,"Ġ1996":5748,"Ġparticipate":5749,"Ġparticipants":5750,"Ġdifficulties":5751,"Ġbusinesses":5752,"Imagine":5753,"build":5754,"intage":5755,"introduc":5756,"Ġscience":5757,"Ġsubway":5758,"Ġcatalyst":5759,"Ġcountries":5760,"Ġportion":5761,"Ġputting":5762,"Ġpredator":5763,"Ġpredict":5764,"Ġpredecessor":5765,"Ġintroduc":5766,"Ġintellect":5767,"Ġlarga":5768,"Ġlargest":5769,"Ġglobal":5770,"Ġreaches":5771,"Ġrequires":5772,"Ġstands":5773,"Ġorganism":5774,"Ġorganized":5775,"Ġexception":5776,"ĠFeel":5777,"Ġjoined":5778,"ĠEdward":5779,"ĠEduard":5780,"ĠEdiciones":5781,"ĠProcess":5782,"ĠProject":5783,"ĠDoesn":5784,"Ġdeeper":5785,"Ġdeathbed":5786,"ãģĦãģ®ãģ":5787,"Ġpossibilities":5788,"Ġfamously":5789,"Ġsatisfied":5790,"Ġengineer":5791,"Confusion":5792,"Concentrating":5793,"Once":5794,"boat":5795,"fortunately":5796,"movement":5797,"movements":5798,"willcox":5799,"years":5800,"Ġedition":5801,"Ġeditor":5802,"Ġtemper":5803,"Ġtemples":5804,"Ġopport":5805,"Ġoccup":5806,"realize":5807,"Ġwinter":5808,"Ġwaters":5809,"Ġsoul":5810,"Ġsalt":5811,"Ġsalary":5812,"Ġsalmon":5813,"Ġsolved":5814,"Ġsolitude":5815,"ennia":5816,"Ġbadly":5817,"Ġcitiz":5818,"Ġmonk":5819,"Ġyouthful":5820,"ĠSancier":5821,"ĠTezuk":5822,"ĠOrganization":5823,"ĠClifford":5824,"ĠConfucianism":5825,"ĠCalment":5826,"ĠCalorie":5827,"Ġencourage":5828,"Ġencounter":5829,"ĠDisorders":5830,"ribute":5831,"Ġcelebrate":5832,"Ġcarrying":5833,"Beyond":5834,"Everything":5835,"Longevity":5836,"Researchers":5837,"Taira":5838,"nothing":5839,"walking":5840,"walked":5841,"worlds":5842,"á¹ĩi":5843,"Ġaffect":5844,"relax":5845,"Ġflexibility":5846,"Ġfilled":5847,"Ġfears":5848,"Ġfragility":5849,"Ġpaying":5850,"Ġincense":5851,"Ġhigher":5852,"Ġepidem":5853,"Ġevidence":5854,"Ġevolution":5855,"Ġstretching":5856,"Ġbegin":5857,"Ġbegins":5858,"ĠSeven":5859,"ĠSerenity":5860,"ĠWesterners":5861,"ĠAbove":5862,"Ġrunning":5863,"Ġabsence":5864,"Ġabsorbed":5865,"Ġabsolute":5866,"Ġaccustom":5867,"Ġkilling":5868,"achieving":5869,"Ġspeaking":5870,"ĠDePa":5871,"Ġplanet":5872,"Ġprotect":5873,"ãģ®ãģĦãģ®ãģ":5874,"Ġapplying":5875,"Ġstructure":5876,"Ġimagine":5877,"Ġimagined":5878,"Ġimagining":5879,"Ġremaining":5880,"Ġmodels":5881,"Ġindicates":5882,"Ġsurrounded":5883,"Ġsurroundings":5884,"Ġobsessing":5885,"Ġdetails":5886,"Ġprofessional":5887,"Ġscientifically":5888,"LOW":5889,"conscious":5890,"disappear":5891,"factor":5892,"offers":5893,"rots":5894,"small":5895,"supercentenarians":5896,"ãĤıãģ":5897,"Ġutility":5898,"Ġuganju":5899,"Ġirregular":5900,"ĠçĶ²æĸĲ":5901,"ĠçĶŁãģį":5902,"healthy":5903,"Ġoperator":5904,"Ġwindows":5905,"Ġswitch":5906,"Ġbroad":5907,"Ġcycles":5908,"Ġcamp":5909,"Ġcameras":5910,"Ġdeliberate":5911,"letes":5912,"Ġgrown":5913,"Ġreceived":5914,"Ġstomachs":5915,"Ġconstantly":5916,"eppers":5917,"Ġallowed":5918,"Ġvitality":5919,"ĠResilience":5920,"ĠResearch":5921,"Ġemploys":5922,"Ġconsciousness":5923,"Ġartisans":5924,"translator":5925,"Ġcorrect":5926,"Ġcorrectly":5927,"Ġcharacterized":5928,"ATA":5929,"Getting":5930,"Lowering":5931,"block":5932,"calories":5933,"content":5934,"control":5935,"mitted":5936,"nytimes":5937,"practice":5938,"passage":5939,"says":5940,"uardian":5941,"writer":5942,"¾ãģĵãģ":5943,"Ġsweets":5944,"Ġfatigue":5945,"Ġfifty":5946,"Ġfifteen":5947,"ĠcafÃ©":5948,"Ġcounting":5949,"Ġcultivate":5950,"Ġprivile":5951,"Ġmantras":5952,"Ġmillennia":5953,"Ġinterests":5954,"Ġhurry":5955,"Ġhunger":5956,"Ġhungry":5957,"Ġdancing":5958,"Ġdancers":5959,"Ġdanger":5960,"Ġloved":5961,"Ġstead":5962,"ĠSoul":5963,"ĠSurprising":5964,"Ġseason":5965,"Ġseasons":5966,"ĠTaira":5967,"ĠTaiji":5968,"ĠOpen":5969,"ĠOptimal":5970,"âĢĶâĢĶâĢĶ.":5971,"Ġritualistic":5972,"ĠFollow":5973,"ĠFollowing":5974,"ĠBrigid":5975,"ĠCenter":5976,"ĠCentenarians":5977,"ĠLCCN":5978,"ographic":5979,"Ġproverb":5980,"Ġproverbs":5981,"Ġarchitect":5982,"Ġarchipelago":5983,"ĠEssence":5984,"ĠPsychology":5985,"Ġadrenaline":5986,"technolog":5987,"Ġtwenties":5988,"Ġtwentieth":5989,"Ġperforming":5990,"Ġsmartphone":5991,"Ġsmartphones":5992,"Ġconsumed":5993,"Ġreligion":5994,"Ġtranslated":5995,"Ġappreciate":5996,"Ġsuicide":5997,"Ġsuicidal":5998,"provide":5999,"Ġearthquake":6000,"expectancy":6001,"Ġchecking":6002,"Ġincreasingly":6003,"Ġinspirational":6004,"Ġneighborhoods":6005,"ãģĦãģ¾ãģĵãģ":6006,"Ġstrengthens":6007,"Ġrecognized":6008,"Ġrecommended":6009,"ENTS":6010,"Ġelixirs":6011,"776":6012,"ABI":6013,"Also":6014,"Artists":6015,"Buddhism":6016,"Helps":6017,"Happy":6018,"Originally":6019,"Sometimes":6020,"certainty":6021,"detail":6022,"decided":6023,"distracted":6024,"eanne":6025,"frustration":6026,"finish":6027,"following":6028,"minute":6029,"popular":6030,"sthash":6031,"samu":6032,"Ġingredient":6033,"Ġtuna":6034,"represents":6035,"retirement":6036,"Ġwalls":6037,"Ġseniors":6038,"escription":6039,"Ġfirm":6040,"Ġfavorite":6041,"Ġfestival":6042,"Ġtorso":6043,"Ġbinder":6044,"Ġblows":6045,"Ġceramics":6046,"Ġcustomers":6047,"Ġmethods":6048,"Ġhoriz":6049,"Ġdoubt":6050,"Ġlangu":6051,"Ġeldest":6052,"Ġeggs":6053,"urturing":6054,"Ġgrams":6055,"Ġrebuilt":6056,"Ġweakening":6057,"Ġlikes":6058,"throughout":6059,"Ġdozen":6060,"ĠAchieve":6061,"Ġmotivation":6062,"ĠMartin":6063,"ĠMethusel":6064,"Ġrisks":6065,"ĠCynics":6066,"ĠCultivate":6067,"emotions":6068,"Ġvolunte":6069,"Ġaccepting":6070,"ĠEnjoying":6071,"ĠRedes":6072,"ĠRyukyu":6073,"ĠPerceiving":6074,"ĠGerman":6075,"Ġunpredict":6076,"Ġadopt":6077,"ĠNobel":6078,"Ġprotein":6079,"Ġphotos":6080,"Ġclassic":6081,"Ġnotifications":6082,"psychoanalysis":6083,"Ġprecision":6084,"riefly":6085,"Ġappetiz":6086,"Ġimmediately":6087,"Ġrepresenting":6088,"Shikuwasas":6089,"Ġcolleagues":6090,"Ġphilosophies":6091,"Ġinfluences":6092,"Improved":6093,"surroundings":6094,"Ġoccurs":6095,"ĠTechnique":6096,"LOGUE":6097,"municip":6098,"instinct":6099,"Ġdemonstrating":6100,"Ġpotatoes":6101,"Ġeconomic":6102,"364":6103,"Celebr":6104,"Decade":6105,"Given":6106,"Greater":6107,"LTc":6108,"Practicing":6109,"Styles":6110,"Title":6111,"Toyota":6112,"Traditions":6113,"Unfortunately":6114,"balanced":6115,"business":6116,"bluezones":6117,"bosses":6118,"cerns":6119,"diplomat":6120,"dpuf":6121,"direc":6122,"drawing":6123,"egetables":6124,"hoku":6125,"iracle":6126,"jokingly":6127,"lamm":6128,"length":6129,"mobility":6130,"nineteenth":6131,"rupted":6132,"simply":6133,"situations":6134,"tasks":6135,"vantages":6136,"Åįhoku":6137,"Ġutaki":6138,"Ġikigais":6139,"Ġversion":6140,"Ġtalent":6141,"Ġtouted":6142,"Ġtelomeres":6143,"Ġtrip":6144,"Ġtsunami":6145,"Ġathletes":6146,"Ġafraid":6147,"inomaki":6148,"Ġosteoporosis":6149,"Ġomelet":6150,"Ġoxidation":6151,"Ġotakus":6152,"render":6153,"Ġwandering":6154,"Ġwags":6155,"Ġwicker":6156,"Ġsacred":6157,"Ġsilence":6158,"Ġsustained":6159,"Ġsailboat":6160,"eridian":6161,"onetheless":6162,"esennuma":6163,"Ġfulfill":6164,"Ġfabrication":6165,"Ġfairly":6166,"Ġfashion":6167,"Ġtomato":6168,"Ġbottles":6169,"Ġcorner":6170,"Ġmundane":6171,"Ġmiddle":6172,"Ġinterrupted":6173,"Ġincluding":6174,"Ġincomplete":6175,"Ġhunting":6176,"Ġhobby":6177,"Ġdessert":6178,"Ġdynamic":6179,"Ġyuimaaru":6180,"Ġnamed":6181,"Ġnorthern":6182,"Ġnuclear":6183,"Ġnickname":6184,"Ġnavig":6185,"Ġgateball":6186,"Ġgraphic":6187,"Ġlibrary":6188,"iciently":6189,"Ġforgotten":6190,"ĠIshinomaki":6191,"Ġstabil":6192,"Ġstuffing":6193,"ĠSardin":6194,"ĠSaturday":6195,"ĠSchulte":6196,"ophisticated":6197,"Ġconference":6198,"Ġconcert":6199,"Ġexhaling":6200,"ĠWinston":6201,"Ġneutral":6202,"ĠObjective":6203,"ĠOlympic":6204,"Ġaligned":6205,"ĠHawaii":6206,"ĠHappiness":6207,"ĠMovements":6208,"ĠMuseum":6209,"abdomen":6210,"ĠFacebook":6211,"ĠFoundations":6212,"ĠFixation":6213,"ĠBurnap":6214,"ĠBertrand":6215,"ĠCollins":6216,"Ġchronic":6217,"ĠLuigi":6218,"ĠLandmark":6219,"Ġbutsudan":6220,"Ġvibr":6221,"ography":6222,"Ġproperties":6223,"Ġaccelerate":6224,"Ġjealousy":6225,"Ġkidneys":6226,"ĠEpictetus":6227,"Ġspeech":6228,"ĠPractice":6229,"ĠPrayer":6230,"Ġunhurried":6231,"ĠIncludes":6232,"ĠYukio":6233,"Ġdevotion":6234,"ritualistic":6235,"ritannica":6236,"005811":6237,"ĠViews":6238,"ĠVienna":6239,"specifically":6240,"Ġsuffered":6241,"ĠKenneth":6242,"ĠKumano":6243,"derivatives":6244,"Ġlethargic":6245,"Ġscattered":6246,"Ġredundancies":6247,"introduced":6248,"Ġintellectual":6249,"ĠTezuka":6250,"Ġepidemic":6251,"Ġaccustomed":6252,"ĠDePaul":6253,"ãģ®ãģĦãģ®ãģ¡":6254,"ĠMethuselah":6255,"Ġvolunteer":6256,"Ġunpredictable":6257}